{
  "version": "1.0",
  "truncation": null,
  "padding": null,
  "added_tokens": [
    {
      "id": 0,
      "content": "<|endoftext|>",
      "single_word": false,
      "lstrip": false,
      "rstrip": false,
      "normalized": false,
      "special": true
    },
    {
      "id": 1,
      "content": "<|pad|>",
      "single_word": false,
      "lstrip": false,
      "rstrip": false,
      "normalized": false,
      "special": true
    },
    {
      "id": 2,
      "content": "<|system|>",
      "single_word": false,
      "lstrip": false,
      "rstrip": false,
      "normalized": false,
      "special": true
    },
    {
      "id": 3,
      "content": "<|user|>",
      "single_word": false,
      "lstrip": false,
      "rstrip": false,
      "normalized": false,
      "special": true
    },
    {
      "id": 4,
      "content": "<|assistant|>",
      "single_word": false,
      "lstrip": false,
      "rstrip": false,
      "normalized": false,
      "special": true
    }
  ],
  "normalizer": null,
  "pre_tokenizer": {
    "type": "ByteLevel",
    "add_prefix_space": false,
    "trim_offsets": true,
    "use_regex": true
  },
  "post_processor": {
    "type": "ByteLevel",
    "add_prefix_space": true,
    "trim_offsets": false,
    "use_regex": true
  },
  "decoder": {
    "type": "ByteLevel",
    "add_prefix_space": true,
    "trim_offsets": true,
    "use_regex": true
  },
  "model": {
    "type": "BPE",
    "dropout": null,
    "unk_token": null,
    "continuing_subword_prefix": null,
    "end_of_word_suffix": null,
    "fuse_unk": false,
    "byte_fallback": false,
    "ignore_merges": false,
    "vocab": {
      "<|endoftext|>": 0,
      "<|pad|>": 1,
      "<|system|>": 2,
      "<|user|>": 3,
      "<|assistant|>": 4,
      "!": 5,
      "\"": 6,
      "#": 7,
      "$": 8,
      "%": 9,
      "&": 10,
      "'": 11,
      "(": 12,
      ")": 13,
      "*": 14,
      "+": 15,
      ",": 16,
      "-": 17,
      ".": 18,
      "/": 19,
      "0": 20,
      "1": 21,
      "2": 22,
      "3": 23,
      "4": 24,
      "5": 25,
      "6": 26,
      "7": 27,
      "8": 28,
      "9": 29,
      ":": 30,
      ";": 31,
      "<": 32,
      "=": 33,
      ">": 34,
      "?": 35,
      "@": 36,
      "A": 37,
      "B": 38,
      "C": 39,
      "D": 40,
      "E": 41,
      "F": 42,
      "G": 43,
      "H": 44,
      "I": 45,
      "J": 46,
      "K": 47,
      "L": 48,
      "M": 49,
      "N": 50,
      "O": 51,
      "P": 52,
      "Q": 53,
      "R": 54,
      "S": 55,
      "T": 56,
      "U": 57,
      "V": 58,
      "W": 59,
      "X": 60,
      "Y": 61,
      "Z": 62,
      "[": 63,
      "\\": 64,
      "]": 65,
      "^": 66,
      "_": 67,
      "`": 68,
      "a": 69,
      "b": 70,
      "c": 71,
      "d": 72,
      "e": 73,
      "f": 74,
      "g": 75,
      "h": 76,
      "i": 77,
      "j": 78,
      "k": 79,
      "l": 80,
      "m": 81,
      "n": 82,
      "o": 83,
      "p": 84,
      "q": 85,
      "r": 86,
      "s": 87,
      "t": 88,
      "u": 89,
      "v": 90,
      "w": 91,
      "x": 92,
      "y": 93,
      "z": 94,
      "{": 95,
      "|": 96,
      "}": 97,
      "~": 98,
      "¡": 99,
      "¢": 100,
      "£": 101,
      "¤": 102,
      "¥": 103,
      "¦": 104,
      "§": 105,
      "¨": 106,
      "©": 107,
      "ª": 108,
      "«": 109,
      "¬": 110,
      "®": 111,
      "¯": 112,
      "°": 113,
      "±": 114,
      "²": 115,
      "³": 116,
      "´": 117,
      "µ": 118,
      "¶": 119,
      "·": 120,
      "¸": 121,
      "¹": 122,
      "º": 123,
      "»": 124,
      "¼": 125,
      "½": 126,
      "¾": 127,
      "¿": 128,
      "À": 129,
      "Á": 130,
      "Â": 131,
      "Ã": 132,
      "Ä": 133,
      "Å": 134,
      "Æ": 135,
      "Ç": 136,
      "È": 137,
      "É": 138,
      "Ê": 139,
      "Ë": 140,
      "Ì": 141,
      "Í": 142,
      "Î": 143,
      "Ï": 144,
      "Ð": 145,
      "Ñ": 146,
      "Ò": 147,
      "Ó": 148,
      "Ô": 149,
      "Õ": 150,
      "Ö": 151,
      "×": 152,
      "Ø": 153,
      "Ù": 154,
      "Ú": 155,
      "Û": 156,
      "Ü": 157,
      "Ý": 158,
      "Þ": 159,
      "ß": 160,
      "à": 161,
      "á": 162,
      "â": 163,
      "ã": 164,
      "ä": 165,
      "å": 166,
      "æ": 167,
      "ç": 168,
      "è": 169,
      "é": 170,
      "ê": 171,
      "ë": 172,
      "ì": 173,
      "í": 174,
      "î": 175,
      "ï": 176,
      "ð": 177,
      "ñ": 178,
      "ò": 179,
      "ó": 180,
      "ô": 181,
      "õ": 182,
      "ö": 183,
      "÷": 184,
      "ø": 185,
      "ù": 186,
      "ú": 187,
      "û": 188,
      "ü": 189,
      "ý": 190,
      "þ": 191,
      "ÿ": 192,
      "Ā": 193,
      "ā": 194,
      "Ă": 195,
      "ă": 196,
      "Ą": 197,
      "ą": 198,
      "Ć": 199,
      "ć": 200,
      "Ĉ": 201,
      "ĉ": 202,
      "Ċ": 203,
      "ċ": 204,
      "Č": 205,
      "č": 206,
      "Ď": 207,
      "ď": 208,
      "Đ": 209,
      "đ": 210,
      "Ē": 211,
      "ē": 212,
      "Ĕ": 213,
      "ĕ": 214,
      "Ė": 215,
      "ė": 216,
      "Ę": 217,
      "ę": 218,
      "Ě": 219,
      "ě": 220,
      "Ĝ": 221,
      "ĝ": 222,
      "Ğ": 223,
      "ğ": 224,
      "Ġ": 225,
      "ġ": 226,
      "Ģ": 227,
      "ģ": 228,
      "Ĥ": 229,
      "ĥ": 230,
      "Ħ": 231,
      "ħ": 232,
      "Ĩ": 233,
      "ĩ": 234,
      "Ī": 235,
      "ī": 236,
      "Ĭ": 237,
      "ĭ": 238,
      "Į": 239,
      "į": 240,
      "İ": 241,
      "ı": 242,
      "Ĳ": 243,
      "ĳ": 244,
      "Ĵ": 245,
      "ĵ": 246,
      "Ķ": 247,
      "ķ": 248,
      "ĸ": 249,
      "Ĺ": 250,
      "ĺ": 251,
      "Ļ": 252,
      "ļ": 253,
      "Ľ": 254,
      "ľ": 255,
      "Ŀ": 256,
      "ŀ": 257,
      "Ł": 258,
      "ł": 259,
      "Ń": 260,
      "he": 261,
      "Ġt": 262,
      "Ġa": 263,
      "Ġs": 264,
      "Ġw": 265,
      "nd": 266,
      "Ġthe": 267,
      "ed": 268,
      "Ġand": 269,
      "Ġto": 270,
      "Ġb": 271,
      "in": 272,
      "Ġh": 273,
      "re": 274,
      "ou": 275,
      "Ġwa": 276,
      "Ġf": 277,
      "it": 278,
      "Ġc": 279,
      "Ġl": 280,
      "er": 281,
      "Ġhe": 282,
      "Ġd": 283,
      "Ġm": 284,
      "Ġp": 285,
      "Ġwas": 286,
      "ĠT": 287,
      "om": 288,
      "is": 289,
      "Ġo": 290,
      "ay": 291,
      "ar": 292,
      "ing": 293,
      "il": 294,
      "Ġg": 295,
      "id": 296,
      "at": 297,
      "an": 298,
      "en": 299,
      "Ġn": 300,
      "Ġsa": 301,
      "Ġha": 302,
      "ĠS": 303,
      "ĠThe": 304,
      "im": 305,
      "or": 306,
      "on": 307,
      "Ġit": 308,
      "Ġth": 309,
      "ll": 310,
      "le": 311,
      "ĠH": 312,
      "Ġher": 313,
      "ot": 314,
      "et": 315,
      "ir": 316,
      "ĠShe": 317,
      "es": 318,
      "ĠHe": 319,
      "Ġin": 320,
      "ow": 321,
      "ut": 322,
      "ver": 323,
      "ĠThey": 324,
      "Ġy": 325,
      "ck": 326,
      "Ġe": 327,
      "ily": 328,
      "Ġu": 329,
      "ld": 330,
      "ĠI": 331,
      "oo": 332,
      "ig": 333,
      "Ġsaid": 334,
      "am": 335,
      "Ġr": 336,
      "Ġbe": 337,
      "Ġ\"": 338,
      "Ġst": 339,
      "ve": 340,
      "Lily": 341,
      "ith": 342,
      "ke": 343,
      "ce": 344,
      "Ġyou": 345,
      "Ġwith": 346,
      "pp": 347,
      "Ġshe": 348,
      "Ġon": 349,
      "On": 350,
      "ri": 351,
      "Ġof": 352,
      "Ġpl": 353,
      "ked": 354,
      "Ġhis": 355,
      "nt": 356,
      "ad": 357,
      "Ġso": 358,
      "very": 359,
      "st": 360,
      "Ġday": 361,
      "Ġthat": 362,
      "ĠLily": 363,
      "Ġplay": 364,
      "Ġup": 365,
      "Ġwe": 366,
      "Ġthey": 367,
      "Ġhad": 368,
      "Ġmom": 369,
      "ĠB": 370,
      "Ġfor": 371,
      "'s": 372,
      "el": 373,
      "un": 374,
      "ould": 375,
      "my": 376,
      "Ġli": 377,
      "ch": 378,
      "ent": 379,
      "Ġhapp": 380,
      "Ġwant": 381,
      "The": 382,
      "itt": 383,
      "out": 384,
      "Ġsh": 385,
      "her": 386,
      "Ġdo": 387,
      "Ġnot": 388,
      "Ġas": 389,
      "all": 390,
      "se": 391,
      "ome": 392,
      "Ġk": 393,
      "end": 394,
      "ly": 395,
      "Ġvery": 396,
      "Ġwh": 397,
      "ound": 398,
      "ime": 399,
      "ittle": 400,
      "ht": 401,
      "Ġis": 402,
      "Ġtime": 403,
      "al": 404,
      "Ġthere": 405,
      "Ġne": 406,
      "Ġlittle": 407,
      "ĠM": 408,
      "Ġbig": 409,
      "Ġhappy": 410,
      "Ġre": 411,
      "ĠIt": 412,
      "Ġsm": 413,
      "Ġbut": 414,
      "ĠĊ": 415,
      "Ġan": 416,
      "riend": 417,
      "Ġsaw": 418,
      "ra": 419,
      "Ġfriend": 420,
      "Ġare": 421,
      ".\"": 422,
      "ry": 423,
      "'t": 424,
      "ack": 425,
      "One": 426,
      "ake": 427,
      "ide": 428,
      "ter": 429,
      "fu": 430,
      "ved": 431,
      "ug": 432,
      "Ġlo": 433,
      "Ġwere": 434,
      "Ġloo": 435,
      "!\"": 436,
      "ore": 437,
      "Once": 438,
      "Ġse": 439,
      "ĠTim": 440,
      "Ġhim": 441,
      "Ġtoo": 442,
      "Ġbo": 443,
      "lp": 444,
      "Ġgo": 445,
      "You": 446,
      "Ġhelp": 447,
      "ful": 448,
      "ec": 449,
      "ill": 450,
      "Ġwanted": 451,
      "Ġthem": 452,
      "Ġj": 453,
      "irl": 454,
      "ard": 455,
      "Ġupon": 456,
      "ĠA": 457,
      "Ġout": 458,
      "Ġgirl": 459,
      "Ġat": 460,
      "ind": 461,
      "Ġtheir": 462,
      "Ġdid": 463,
      "ur": 464,
      "way": 465,
      "Ġhave": 466,
      "Ġsp": 467,
      "Ġcould": 468,
      "hen": 469,
      "Ġsmil": 470,
      "ain": 471,
      "ist": 472,
      "ĠYou": 473,
      "art": 474,
      "ant": 475,
      "Ġcan": 476,
      "as": 477,
      "Ġwent": 478,
      "rom": 479,
      "hed": 480,
      "Ġnam": 481,
      "ic": 482,
      "Ġkn": 483,
      "Ġex": 484,
      "ĠBen": 485,
      "ight": 486,
      "ood": 487,
      "round": 488,
      "Ġfriends": 489,
      "?\"": 490,
      "ĠJ": 491,
      "hing": 492,
      "Ġall": 493,
      "um": 494,
      "one": 495,
      "Ġsay": 496,
      "ark": 497,
      "Ġback": 498,
      "Ġfun": 499,
      "Ġle": 500,
      "are": 501,
      "<|": 502,
      "|>": 503,
      "ĠW": 504,
      "Ġcl": 505,
      "Ġnamed": 506,
      "ĠTom": 507,
      "Ġno": 508,
      "op": 509,
      "us": 510,
      "Ġme": 511,
      "Ġloved": 512,
      "oug": 513,
      "elt": 514,
      "Ġsc": 515,
      "ĠOne": 516,
      "Ġal": 517,
      "ĠTimmy": 518,
      "Ġtoy": 519,
      "ick": 520,
      "Ġlike": 521,
      "Ġfelt": 522,
      "side": 523,
      "Ġfe": 524,
      "Ġman": 525,
      "Ġsee": 526,
      "Ġsmiled": 527,
      "Ġasked": 528,
      "Ġsome": 529,
      "ame": 530,
      "Ġlooked": 531,
      "Ġro": 532,
      "ure": 533,
      "Ġbir": 534,
      "omet": 535,
      "get": 536,
      "Ġbr": 537,
      "Ġwould": 538,
      "Ġaround": 539,
      "Ġboy": 540,
      "ice": 541,
      "ong": 542,
      "Ġbird": 543,
      "Ġstart": 544,
      "Ġwor": 545,
      "Ġag": 546,
      "ings": 547,
      "Ġwhat": 548,
      "Ġsomet": 549,
      "ade": 550,
      "Ġmake": 551,
      "ĠBut": 552,
      "dd": 553,
      "own": 554,
      "Ġtre": 555,
      "Ġfa": 556,
      "ag": 557,
      "king": 558,
      "gether": 559,
      ",\"": 560,
      "Ġaway": 561,
      "Ġsays": 562,
      "if": 563,
      "Ġran": 564,
      "Ġtogether": 565,
      "ared": 566,
      "Ġmade": 567,
      "oud": 568,
      "ie": 569,
      "Ġstarted": 570,
      "sist": 571,
      "Ġpark": 572,
      "Ġco": 573,
      "Ġcar": 574,
      "ell": 575,
      "Ġsad": 576,
      "ther": 577,
      "Ġsomething": 578,
      "Ã¢": 579,
      "âĤ": 580,
      "âĤ¬": 581,
      "Ġput": 582,
      "Ġnew": 583,
      "Ġother": 584,
      "ĠL": 585,
      "em": 586,
      "hat": 587,
      "Ġfrom": 588,
      "sistant": 589,
      "ited": 590,
      "ble": 591,
      "Ġpr": 592,
      "Ġagain": 593,
      "Ġhug": 594,
      "Ġgood": 595,
      "ook": 596,
      "Ġhome": 597,
      "Ġwhen": 598,
      "est": 599,
      "ried": 600,
      "Ġla": 601,
      "Ġfl": 602,
      "Ġwho": 603,
      "Ġexc": 604,
      "ep": 605,
      "Ġget": 606,
      "ss": 607,
      "Ġfound": 608,
      "Ġch": 609,
      "ach": 610,
      "ust": 611,
      "Ġthen": 612,
      "ue": 613,
      "ought": 614,
      "Ġplaying": 615,
      "pped": 616,
      "Ġdec": 617,
      "uch": 618,
      "Ġsw": 619,
      "Ġgot": 620,
      "uck": 621,
      "Ġwal": 622,
      "ally": 623,
      "Ġyour": 624,
      "Ġthings": 625,
      "Ġliked": 626,
      "ous": 627,
      "ĠE": 628,
      "nn": 629,
      "pl": 630,
      "ĠD": 631,
      "ave": 632,
      "Ġbl": 633,
      "ro": 634,
      "Ġdog": 635,
      "Ġevery": 636,
      "Ġcame": 637,
      "ax": 638,
      "Ġexcited": 639,
      "Ġmy": 640,
      "Ġbec": 641,
      "Ġdecid": 642,
      "Ġdown": 643,
      "Ġab": 644,
      "Ġfind": 645,
      "Ġdecided": 646,
      "Ġv": 647,
      "Ġone": 648,
      "Ġdad": 649,
      "Ġscared": 650,
      "Ġcare": 651,
      "ny": 652,
      "Ġfeel": 653,
      "ap": 654,
      "ouse": 655,
      "our": 656,
      "arn": 657,
      "Ġthan": 658,
      "Ġabout": 659,
      "ĠF": 660,
      "Ġball": 661,
      "ĠMom": 662,
      "Ġwill": 663,
      "qu": 664,
      "nna": 665,
      "Ġdidn": 666,
      "Ġknow": 667,
      "ess": 668,
      "They": 669,
      "ara": 670,
      "udd": 671,
      "Ġtoys": 672,
      "nder": 673,
      "Ġtree": 674,
      "fe": 675,
      "ways": 676,
      "Ġtook": 677,
      "Ġgra": 678,
      "Ġpo": 679,
      "Ġalways": 680,
      "Ġlook": 681,
      "ers": 682,
      "Ġmommy": 683,
      "Ġlot": 684,
      "Ġke": 685,
      "Ġkne": 686,
      "Ġthought": 687,
      "Ġta": 688,
      "Ġlearn": 689,
      "Ġoutside": 690,
      "Ġmore": 691,
      "Ġpre": 692,
      "ened": 693,
      "ĠSam": 694,
      "ise": 695,
      "bb": 696,
      "Ġint": 697,
      "ged": 698,
      "ched": 699,
      "Ġho": 700,
      "Ġsor": 701,
      "ite": 702,
      "Ġcat": 703,
      "Ġany": 704,
      "ĠMax": 705,
      "Ġtake": 706,
      "eci": 707,
      "ive": 708,
      "Ġpe": 709,
      "fter": 710,
      "Ġlaug": 711,
      "Ġold": 712,
      "ang": 713,
      "and": 714,
      "Ġhow": 715,
      "au": 716,
      "Ġknew": 717,
      "Ġtr": 718,
      "ink": 719,
      "ia": 720,
      "Ġshow": 721,
      "ecial": 722,
      "Ġspecial": 723,
      "Ġsorry": 724,
      "udden": 725,
      "ma": 726,
      "Ġmuch": 727,
      "Ġor": 728,
      "Ġsl": 729,
      "Ġrun": 730,
      "But": 731,
      "ven": 732,
      "ish": 733,
      "uddenly": 734,
      "Ġhouse": 735,
      "ĠWe": 736,
      "Ġthis": 737,
      "ank": 738,
      "Ġtold": 739,
      "Ġtw": 740,
      "Ġhand": 741,
      "ion": 742,
      "Ġop": 743,
      "sy": 744,
      "Ġmo": 745,
      "Ġsun": 746,
      "Ġwater": 747,
      "'m": 748,
      "ate": 749,
      "Ġplayed": 750,
      "Ġinto": 751,
      "ty": 752,
      "ause": 753,
      "Ġtried": 754,
      "Ġif": 755,
      "Ġsk": 756,
      "Ġgave": 757,
      "Ġclo": 758,
      "Ġover": 759,
      "other": 760,
      "Ġroom": 761,
      "Ġhelpful": 762,
      "Ġinside": 763,
      "Ġnever": 764,
      "etter": 765,
      "dy": 766,
      "ump": 767,
      "here": 768,
      "Ġproud": 769,
      "Ġen": 770,
      "Ġcouldn": 771,
      "Ġeat": 772,
      "ak": 773,
      "ace": 774,
      "Ġjust": 775,
      "Ġpret": 776,
      "Ġheard": 777,
      "Ġpick": 778,
      "Ġeach": 779,
      "Ġcom": 780,
      "Ġbecause": 781,
      "Ġhugged": 782,
      "Tom": 783,
      "Ġgre": 784,
      "ĠAnna": 785,
      "Ġbox": 786,
      "Ġexpl": 787,
      "sed": 788,
      "Ġneed": 789,
      "Ġwat": 790,
      "ob": 791,
      "Ġstr": 792,
      "ĠEvery": 793,
      "ĠC": 794,
      "Ġmany": 795,
      "Ġsmall": 796,
      "ile": 797,
      "Ġnice": 798,
      "Mom": 799,
      "oth": 800,
      "stem": 801,
      "Ġqu": 802,
      "Ġbu": 803,
      "Ġassistant": 804,
      "system": 805,
      "assistant": 806,
      "user": 807,
      "ĠSara": 808,
      "Ġlong": 809,
      "Ġoff": 810,
      "iz": 811,
      "Ġfo": 812,
      "ough": 813,
      "ving": 814,
      "Ġlearned": 815,
      "Ġdon": 816,
      "Ġsn": 817,
      "ine": 818,
      "uc": 819,
      "gry": 820,
      "Ġbetter": 821,
      "by": 822,
      "ort": 823,
      "sel": 824,
      "Ġbear": 825,
      "Ġtry": 826,
      "imal": 827,
      "urt": 828,
      "Ġanimal": 829,
      "Ġlove": 830,
      "ild": 831,
      "ĠAnd": 832,
      "ft": 833,
      "Ġunt": 834,
      "Ġcle": 835,
      "Yes": 836,
      "ĠJack": 837,
      "Ġdre": 838,
      "Ġuntil": 839,
      "Ġcall": 840,
      "Ġkind": 841,
      "Ġim": 842,
      "Ġpu": 843,
      "urn": 844,
      "Ġflow": 845,
      "Ġbest": 846,
      "Ġend": 847,
      "ber": 848,
      "ĠSo": 849,
      "ĠHer": 850,
      "ĠMia": 851,
      "ves": 852,
      "Ġfi": 853,
      "ars": 854,
      "Ġgr": 855,
      "He": 856,
      "ady": 857,
      "Ġcareful": 858,
      "Ġfast": 859,
      "Ġeven": 860,
      "Ġad": 861,
      "ase": 862,
      "Th": 863,
      "aut": 864,
      "Ġby": 865,
      "Ġche": 866,
      "Ġte": 867,
      "vent": 868,
      "ĠJo": 869,
      "self": 870,
      "Ġbra": 871,
      "Ġsky": 872,
      "Ġlist": 873,
      "pt": 874,
      "Ġthanked": 875,
      "Ġbeaut": 876,
      "ies": 877,
      "iny": 878,
      "urp": 879,
      "Ġgl": 880,
      "ct": 881,
      "Ġstill": 882,
      "Ġjump": 883,
      "arden": 884,
      "wn": 885,
      "Ġgarden": 886,
      "Ġhurt": 887,
      "oy": 888,
      "Ġloud": 889,
      "lly": 890,
      "Ġcome": 891,
      "Ġlaughed": 892,
      "Ġway": 893,
      "lew": 894,
      "Ġhard": 895,
      "Ġunder": 896,
      "Ġlots": 897,
      "Ġfam": 898,
      "ect": 899,
      "rm": 900,
      "Ġbeauti": 901,
      "be": 902,
      "Ġanimals": 903,
      "Ġbeautiful": 904,
      "hes": 905,
      "It": 906,
      "Ġlet": 907,
      "ĠFrom": 908,
      "Ġwo": 909,
      "ast": 910,
      "ĠHis": 911,
      "Tim": 912,
      "ning": 913,
      "Ġra": 914,
      "kay": 915,
      "Ġlived": 916,
      "Ġcol": 917,
      "ool": 918,
      "Ġsafe": 919,
      "ople": 920,
      "ĠP": 921,
      "No": 922,
      "Ġbad": 923,
      "ĠThen": 924,
      "Ġstay": 925,
      "Ġrem": 926,
      "Ġshould": 927,
      "Ġcu": 928,
      "Ġred": 929,
      "Ġboth": 930,
      "Åĵ": 931,
      "Ġits": 932,
      "Ġstor": 933,
      "ock": 934,
      "Ġimp": 935,
      "Ġpeople": 936,
      "Ġbrave": 937,
      "Ġclean": 938,
      "ucy": 939,
      "Ġbook": 940,
      "ished": 941,
      "Ġtwo": 942,
      "ane": 943,
      "Ġangry": 944,
      "Ġwalked": 945,
      "ree": 946,
      "Ġdoll": 947,
      "Ġshare": 948,
      "Ġfamily": 949,
      "Ġpic": 950,
      "Ġcalled": 951,
      "When": 952,
      "Ġflew": 953,
      "igh": 954,
      "Ġfin": 955,
      "ĠG": 956,
      "xt": 957,
      "Ġfly": 958,
      "Ġcon": 959,
      "Ġgoing": 960,
      "Ġpretty": 961,
      "ĠÃ¢": 962,
      "Ġnow": 963,
      "ip": 964,
      "led": 965,
      "fore": 966,
      "ĠWhen": 967,
      "urpr": 968,
      "age": 969,
      "Ġdra": 970,
      "dded": 971,
      "Let": 972,
      "Ġrock": 973,
      "Ġsurpr": 974,
      "Ġdoor": 975,
      "Ġfore": 976,
      "Ġsoon": 977,
      "Ben": 978,
      "Ġshiny": 979,
      "ummy": 980,
      "illy": 981,
      "ary": 982,
      "Ġwind": 983,
      "Ġkept": 984,
      "Ġreal": 985,
      "Ġkeep": 986,
      "Ġfar": 987,
      "hn": 988,
      "Ġground": 989,
      "ised": 990,
      "Ġopened": 991,
      "Ġcry": 992,
      "Ġfr": 993,
      "Ġbefore": 994,
      "Ġide": 995,
      "Ġsto": 996,
      "Ġwr": 997,
      "ture": 998,
      "Ġturn": 999,
      "ff": 1000,
      "hy": 1001,
      "so": 1002,
      "Ġhas": 1003,
      "ied": 1004,
      "thing": 1005,
      "Ġexplore": 1006,
      "oon": 1007,
      "Ġthink": 1008,
      "Ġnoise": 1009,
      "les": 1010,
      "Ġadvent": 1011,
      "Ġcre": 1012,
      "aybe": 1013,
      "Ġcolor": 1014,
      "Ġey": 1015,
      "eet": 1016,
      "Ġwhile": 1017,
      "..": 1018,
      "Ġnodded": 1019,
      "Ġpicked": 1020,
      "What": 1021,
      "Ġalso": 1022,
      "Ġthr": 1023,
      "Ġidea": 1024,
      "Ġun": 1025,
      "Ġnext": 1026,
      "Ġfeeling": 1027,
      "âĤ¬â": 1028,
      "Ġtruck": 1029,
      "Ġbed": 1030,
      "ĠLucy": 1031,
      "imb": 1032,
      "That": 1033,
      "ge": 1034,
      "Ġclimb": 1035,
      "Ġpicture": 1036,
      "ĠN": 1037,
      "ting": 1038,
      "Thank": 1039,
      "Ġbeing": 1040,
      "kes": 1041,
      "Ġsmile": 1042,
      "Ġlisten": 1043,
      "Ġma": 1044,
      "Ġwalking": 1045,
      "Ġgive": 1046,
      "Ġright": 1047,
      "Ġblue": 1048,
      "ac": 1049,
      "Ġafter": 1050,
      "Ġwait": 1051,
      "ember": 1052,
      "Ġtra": 1053,
      "ted": 1054,
      "Ġfood": 1055,
      "ious": 1056,
      "iced": 1057,
      "Ġtal": 1058,
      "Ġadventure": 1059,
      "ught": 1060,
      "ĠSp": 1061,
      "Ħ¢": 1062,
      "âĤ¬âĦ¢": 1063,
      "Ġclos": 1064,
      "Ġus": 1065,
      "Ġbre": 1066,
      "Ġslide": 1067,
      "Ġdif": 1068,
      "Ġmean": 1069,
      "joy": 1070,
      "Ġtow": 1071,
      "Ġeyes": 1072,
      "Ġhands": 1073,
      "Ġstopped": 1074,
      "ĠR": 1075,
      "Ġwatch": 1076,
      "Ġlooking": 1077,
      "'re": 1078,
      "Ġdis": 1079,
      "Ġbro": 1080,
      "Ġown": 1081,
      "Ġremember": 1082,
      "able": 1083,
      "ĠDad": 1084,
      "Ġgreat": 1085,
      "Ġask": 1086,
      "Ġjo": 1087,
      "ized": 1088,
      "Ġfish": 1089,
      "Ġever": 1090,
      "Ġwonder": 1091,
      "irst": 1092,
      "llow": 1093,
      "Ġokay": 1094,
      "Ġwalk": 1095,
      "Ġrepl": 1096,
      "She": 1097,
      "Ġwork": 1098,
      "Ġwhere": 1099,
      "ĠSuddenly": 1100,
      "Ġstick": 1101,
      "lease": 1102,
      "Ġflowers": 1103,
      "maz": 1104,
      "co": 1105,
      "Ġrain": 1106,
      "Ġstrong": 1107,
      "Ġvo": 1108,
      "Ġdel": 1109,
      "Ġamaz": 1110,
      "Ġenjoy": 1111,
      "Ġhead": 1112,
      "Ġshowed": 1113,
      "Ġnear": 1114,
      "Ġac": 1115,
      "Ġnoticed": 1116,
      "Ġour": 1117,
      "Ġforest": 1118,
      "Ġquick": 1119,
      "Ġde": 1120,
      "Ġboat": 1121,
      "Ġbeen": 1122,
      "Ġimport": 1123,
      "Ġplace": 1124,
      "Ġapp": 1125,
      "bbit": 1126,
      "ĠTh": 1127,
      "Ġshout": 1128,
      "ĠSue": 1129,
      "Suddenly": 1130,
      "Ġtell": 1131,
      "Ġam": 1132,
      "Ġdoes": 1133,
      "Ġsound": 1134,
      "Ġyell": 1135,
      "Ġfollow": 1136,
      "Ġhere": 1137,
      "Ġmor": 1138,
      "day": 1139,
      "Ġimportant": 1140,
      "anc": 1141,
      "Ġreplied": 1142,
      "We": 1143,
      "fere": 1144,
      "Ġdress": 1145,
      "Ġuse": 1146,
      "ĠBob": 1147,
      "Ġeveryone": 1148,
      "Ġdiffere": 1149,
      "Ġrabbit": 1150,
      "bbed": 1151,
      "bye": 1152,
      "ance": 1153,
      "Ġsure": 1154,
      "ĠSpot": 1155,
      "ange": 1156,
      "ndma": 1157,
      "Ġar": 1158,
      "gan": 1159,
      "Ġbecame": 1160,
      "more": 1161,
      "Ġanymore": 1162,
      "Ġwatched": 1163,
      "Ġhop": 1164,
      "Ġstore": 1165,
      "Look": 1166,
      "Ġcuri": 1167,
      "aught": 1168,
      "Ġhigh": 1169,
      "Anna": 1170,
      "Ġcake": 1171,
      "ath": 1172,
      "Ġper": 1173,
      "Ġquickly": 1174,
      "ered": 1175,
      "Ġchild": 1176,
      "Ġbright": 1177,
      "Ġforg": 1178,
      "itc": 1179,
      "Ġmag": 1180,
      "Ġwarm": 1181,
      "Ġpain": 1182,
      "leep": 1183,
      "Ġdifferent": 1184,
      "Ġcurious": 1185,
      "ila": 1186,
      "uff": 1187,
      "Ġface": 1188,
      "Ġcook": 1189,
      "Ġbel": 1190,
      "Ġye": 1191,
      "Ġcloser": 1192,
      "Ġvoice": 1193,
      "Ġopen": 1194,
      "imes": 1195,
      "iss": 1196,
      "Ġnight": 1197,
      "ĠDo": 1198,
      "Ġgoodbye": 1199,
      "Ġbutter": 1200,
      "Her": 1201,
      "Ġfirst": 1202,
      "ount": 1203,
      "Ġlea": 1204,
      "So": 1205,
      "ired": 1206,
      "Ġbus": 1207,
      "Ġblock": 1208,
      "Ġcont": 1209,
      "ached": 1210,
      "Ġstory": 1211,
      "Ġhelped": 1212,
      "Ġkid": 1213,
      "Ġfav": 1214,
      "Sara": 1215,
      "ull": 1216,
      "Ġfire": 1217,
      "Can": 1218,
      "Ġonly": 1219,
      "Ġfell": 1220,
      "Ġsweet": 1221,
      "Ġsees": 1222,
      "Ġpull": 1223,
      "Ġhappened": 1224,
      "Ġkitc": 1225,
      "ĠMommy": 1226,
      "Ġkitchen": 1227,
      "Ġdr": 1228,
      "Ġz": 1229,
      "Ġru": 1230,
      "orn": 1231,
      "ĠThat": 1232,
      "Ġbeh": 1233,
      "Ġmess": 1234,
      "Ġstop": 1235,
      "Ġflo": 1236,
      "Ġbit": 1237,
      "After": 1238,
      "Ġsand": 1239,
      "Ġbirds": 1240,
      "Ġthree": 1241,
      "Ġ-": 1242,
      "ater": 1243,
      "Ġbrother": 1244,
      "Ġdraw": 1245,
      "unny": 1246,
      "ppy": 1247,
      "Ġglad": 1248,
      "Ġjumped": 1249,
      "ĠLet": 1250,
      "akes": 1251,
      "Jo": 1252,
      "Ġcr": 1253,
      "Ġcra": 1254,
      "Ġpap": 1255,
      "Ġrealized": 1256,
      "Ġsing": 1257,
      "Ġgame": 1258,
      "Ġgrabbed": 1259,
      "Ġsoft": 1260,
      "Ġgrass": 1261,
      "ass": 1262,
      "Ġmon": 1263,
      "ĠAs": 1264,
      "ĠCan": 1265,
      "Ġthrough": 1266,
      "ins": 1267,
      "Ġhaving": 1268,
      "Ġtri": 1269,
      "Ġrest": 1270,
      "Ġreached": 1271,
      "Ġreally": 1272,
      "Ġunderst": 1273,
      "Ġyummy": 1274,
      "air": 1275,
      "th": 1276,
      "Ġate": 1277,
      "isy": 1278,
      "zy": 1279,
      "Ġcut": 1280,
      "ĠJane": 1281,
      "Ġless": 1282,
      "Ġthing": 1283,
      "Ġworld": 1284,
      "nts": 1285,
      "Ġhat": 1286,
      "where": 1287,
      "Ġfix": 1288,
      "Ġready": 1289,
      "ĠEveryone": 1290,
      "Ġlady": 1291,
      "ation": 1292,
      "Ġpart": 1293,
      "Ġname": 1294,
      "Ġfavor": 1295,
      "Ġshouted": 1296,
      "ĠWhat": 1297,
      "ather": 1298,
      "Ġkids": 1299,
      "Ġfunny": 1300,
      "Ġcried": 1301,
      "Ġworry": 1302,
      "Ġprin": 1303,
      "Ġfavorite": 1304,
      "Ġcatch": 1305,
      "Ġbutterf": 1306,
      "ken": 1307,
      "Ġpond": 1308,
      "Wow": 1309,
      "Ġpretend": 1310,
      "As": 1311,
      "'ll": 1312,
      "Ġdone": 1313,
      "bo": 1314,
      "Ġtired": 1315,
      "Ġcoming": 1316,
      "Ġtast": 1317,
      "Ġpare": 1318,
      "Ġhimself": 1319,
      "Ġlooks": 1320,
      "Ġsqu": 1321,
      "Ġused": 1322,
      "Ġpus": 1323,
      "eddy": 1324,
      "Ġanother": 1325,
      "Ġba": 1326,
      "illed": 1327,
      "ient": 1328,
      "Ġwhy": 1329,
      "Ġmaking": 1330,
      "Ġmagic": 1331,
      "oney": 1332,
      "Ġhair": 1333,
      "ren": 1334,
      "ign": 1335,
      "Ġbegan": 1336,
      "fully": 1337,
      "Ġcars": 1338,
      "Ġflower": 1339,
      "Ġpaper": 1340,
      "Ġbag": 1341,
      "ĠSarah": 1342,
      "Ġduck": 1343,
      "Ġfarm": 1344,
      "Ġprom": 1345,
      "Ġseen": 1346,
      "Ġdri": 1347,
      "Ġgreen": 1348,
      "Ġhole": 1349,
      "Ġtouch": 1350,
      "Timmy": 1351,
      "ards": 1352,
      "Ġdin": 1353,
      "Ġfro": 1354,
      "Ġbunny": 1355,
      "Mommy": 1356,
      "Ġyellow": 1357,
      "ely": 1358,
      "Ġbehind": 1359,
      "Ġmum": 1360,
      "Ġblocks": 1361,
      "Don": 1362,
      "Ġcool": 1363,
      "Ġwished": 1364,
      "Ġwaved": 1365,
      "olly": 1366,
      "ĠJohn": 1367,
      "Ġsho": 1368,
      "Ġgi": 1369,
      "Ġdoing": 1370,
      "ster": 1371,
      "Ġhold": 1372,
      "Ġset": 1373,
      "Ġlight": 1374,
      "Ġsleep": 1375,
      "Ġfloor": 1376,
      "Ġlost": 1377,
      "Ġthank": 1378,
      "Ġread": 1379,
      "Ġswing": 1380,
      "Ġlesson": 1381,
      "Ġparents": 1382,
      "Ġdro": 1383,
      "Ġrunning": 1384,
      "Ġdream": 1385,
      "Ġtrees": 1386,
      "ued": 1387,
      "Ġdelic": 1388,
      "Ġsmell": 1389,
      "Ġhappily": 1390,
      "Ġworked": 1391,
      "Ġswim": 1392,
      "andy": 1393,
      "Ġtop": 1394,
      "Ġfull": 1395,
      "Sam": 1396,
      "Ġwrong": 1397,
      "Ġhear": 1398,
      "Ġsurprise": 1399,
      "ul": 1400,
      "ike": 1401,
      "Ġste": 1402,
      "Ġleft": 1403,
      "ons": 1404,
      "Ġbutterfly": 1405,
      "Ġbow": 1406,
      "Ġlaugh": 1407,
      "Ġremembered": 1408,
      "Ġdark": 1409,
      "ey": 1410,
      "Ġcold": 1411,
      "Ġwear": 1412,
      "Ġsat": 1413,
      "aisy": 1414,
      "sh": 1415,
      "ĠO": 1416,
      "Ġwindow": 1417,
      "Ġhopped": 1418,
      "Ġbuy": 1419,
      "ens": 1420,
      "Ġmove": 1421,
      "Ġmouse": 1422,
      "Ġneeded": 1423,
      "Ġlikes": 1424,
      "Ġanything": 1425,
      "Ġspot": 1426,
      "Ġperf": 1427,
      "Ġsnow": 1428,
      "Ġmus": 1429,
      "Ġhill": 1430,
      "ret": 1431,
      "Ġwood": 1432,
      "Ġslow": 1433,
      "ello": 1434,
      "Hello": 1435,
      "rel": 1436,
      "Ġmight": 1437,
      "anger": 1438,
      "Ġfrog": 1439,
      "iver": 1440,
      "Ġice": 1441,
      "ĠNow": 1442,
      "ĠIn": 1443,
      "Ġtall": 1444,
      "Ġyears": 1445,
      "Ġheld": 1446,
      "Ġplease": 1447,
      "Ġhun": 1448,
      "ĠBenny": 1449,
      "\".": 1450,
      "Ġdir": 1451,
      "Ġhid": 1452,
      "Ġgu": 1453,
      "Ġcarefully": 1454,
      "Ġunderstand": 1455,
      "Ġenjoyed": 1456,
      "ined": 1457,
      "ĠAfter": 1458,
      "Ġfollowed": 1459,
      "Ġair": 1460,
      "Ġbuild": 1461,
      "ĠThere": 1462,
      "Ġcontin": 1463,
      "Ġherself": 1464,
      "Ġtable": 1465,
      "Ġsurprised": 1466,
      "Ġarri": 1467,
      "Ġfriendly": 1468,
      "Ġbug": 1469,
      "av": 1470,
      "Ġfair": 1471,
      "sp": 1472,
      "ream": 1473,
      "Ġchildren": 1474,
      "Ġfinished": 1475,
      "ĠK": 1476,
      "Ġel": 1477,
      "cess": 1478,
      "ĠSally": 1479,
      "ds": 1480,
      "reed": 1481,
      "Ġcast": 1482,
      "ner": 1483,
      "Ġclose": 1484,
      "Ġhot": 1485,
      "inally": 1486,
      "Ġforgot": 1487,
      "John": 1488,
      "ĠThis": 1489,
      "Ġrel": 1490,
      "ash": 1491,
      "Ġcolors": 1492,
      "asure": 1493,
      "Ġgrandma": 1494,
      "Ġwants": 1495,
      "Ġgone": 1496,
      "ger": 1497,
      "Ġbooks": 1498,
      "Ġarrived": 1499,
      "Ġwonderful": 1500,
      "Ġarm": 1501,
      "Ġsomeone": 1502,
      "...": 1503,
      "Ġleaves": 1504,
      "Ġgent": 1505,
      "Ġdelicious": 1506,
      "ĠLila": 1507,
      "Ġcontinued": 1508,
      "Ġyes": 1509,
      "Ġelse": 1510,
      "uffy": 1511,
      "Ġmat": 1512,
      "lf": 1513,
      "Ġtight": 1514,
      "Ġsong": 1515,
      "Ġbroken": 1516,
      "ich": 1517,
      "ield": 1518,
      "ĠMaybe": 1519,
      "ask": 1520,
      "Ġtalk": 1521,
      "ĠJoe": 1522,
      "Ġcount": 1523,
      "man": 1524,
      "Ġpoin": 1525,
      "Ġvis": 1526,
      "Ġlion": 1527,
      "ross": 1528,
      "row": 1529,
      "Ġcreat": 1530,
      "Ġmet": 1531,
      "Ġgetting": 1532,
      "Ġmakes": 1533,
      "Ġpat": 1534,
      "room": 1535,
      "red": 1536,
      "Ġfilled": 1537,
      "Ġenough": 1538,
      "Ġscary": 1539,
      "Ġmorning": 1540,
      "From": 1541,
      "Ġable": 1542,
      "Ġwall": 1543,
      "Then": 1544,
      "Ġmother": 1545,
      "Ġtail": 1546,
      "Ġfall": 1547,
      "Ġbreak": 1548,
      "Ġsail": 1549,
      "Ġwhite": 1550,
      "ĠDaisy": 1551,
      "Ġdinner": 1552,
      "Ġpink": 1553,
      "Ġagreed": 1554,
      "Ġfight": 1555,
      "ister": 1556,
      "Ġtrying": 1557,
      "Ġdanc": 1558,
      "Ġmoment": 1559,
      "icy": 1560,
      "ĠEm": 1561,
      "Ġwet": 1562,
      "Ġpictures": 1563,
      "Ġsu": 1564,
      "Ġcomp": 1565,
      "Ġcookies": 1566,
      "Ġmar": 1567,
      "ctor": 1568,
      "Ġcastle": 1569,
      "ud": 1570,
      "Ġamazing": 1571,
      "Ġsmiles": 1572,
      "Ġothers": 1573,
      "Ġdaddy": 1574,
      "Ġballoon": 1575,
      "Ġhungry": 1576,
      "Jack": 1577,
      "oup": 1578,
      "ries": 1579,
      "Ġclot": 1580,
      "Ġlistened": 1581,
      "Ġsometimes": 1582,
      "os": 1583,
      "app": 1584,
      "ence": 1585,
      "Ġfew": 1586,
      "gg": 1587,
      "Ġclothes": 1588,
      "Ġpuppy": 1589,
      "This": 1590,
      "wl": 1591,
      "Ġpi": 1592,
      "lc": 1593,
      "Ġwasn": 1594,
      "Ġroll": 1595,
      "Ġclimbed": 1596,
      "Ġfur": 1597,
      "Ġfinally": 1598,
      "Ġsit": 1599,
      "Ġbaby": 1600,
      "ĠBilly": 1601,
      "gon": 1602,
      "irrel": 1603,
      "Ġeverything": 1604,
      "Ġperfect": 1605,
      "At": 1606,
      "ower": 1607,
      "Ġalone": 1608,
      "Ġturned": 1609,
      "Ġmusic": 1610,
      "Ġbrought": 1611,
      "Ġstayed": 1612,
      "oom": 1613,
      "Ġcream": 1614,
      "zz": 1615,
      "Ġspl": 1616,
      "ama": 1617,
      "ated": 1618,
      "Ġsquirrel": 1619,
      "Ġthre": 1620,
      "ĠGra": 1621,
      "apped": 1622,
      "Ġwaited": 1623,
      "Ġgrow": 1624,
      "amp": 1625,
      "Ġpol": 1626,
      "der": 1627,
      "ucky": 1628,
      "rot": 1629,
      "Ġsilly": 1630,
      "Ġsear": 1631,
      "ĠJen": 1632,
      "Ġhide": 1633,
      "ever": 1634,
      "Ġdanger": 1635,
      "His": 1636,
      "Ġpet": 1637,
      "Ġbeach": 1638,
      "Ġteddy": 1639,
      "Ġride": 1640,
      "Ġvisit": 1641,
      "Ġsister": 1642,
      "que": 1643,
      "Ġwon": 1644,
      "oring": 1645,
      "key": 1646,
      "Ġdeep": 1647,
      "Ġleave": 1648,
      "Ġem": 1649,
      "Ġstrange": 1650,
      "Ġasks": 1651,
      "me": 1652,
      "Ġcloud": 1653,
      "Maybe": 1654,
      "Ġamazed": 1655,
      "ugg": 1656,
      "Ġspark": 1657,
      "Ġmoney": 1658,
      "ix": 1659,
      "Oh": 1660,
      "eter": 1661,
      "Ġjob": 1662,
      "ĠFl": 1663,
      "Ġpulled": 1664,
      "ames": 1665,
      "ope": 1666,
      "Ġjoy": 1667,
      "outh": 1668,
      "med": 1669,
      "Ġcandy": 1670,
      "Ġwoods": 1671,
      "Ġlake": 1672,
      "ott": 1673,
      "ĠAll": 1674,
      "Ġthinks": 1675,
      "Ġtowards": 1676,
      "Ġmoral": 1677,
      "Ġparty": 1678,
      "Ġve": 1679,
      "Ġland": 1680,
      "Ġmouth": 1681,
      "Ġpa": 1682,
      "cket": 1683,
      "Max": 1684,
      "Ġbigger": 1685,
      "Ġside": 1686,
      "ises": 1687,
      "Ġruns": 1688,
      "ph": 1689,
      "Ġliving": 1690,
      "Ġpen": 1691,
      "Ġflying": 1692,
      "Ġshared": 1693,
      "thy": 1694,
      "Ġdance": 1695,
      "avy": 1696,
      "Ġpaint": 1697,
      "igg": 1698,
      "Ġowner": 1699,
      "Ġcup": 1700,
      "orm": 1701,
      "ĠAmy": 1702,
      "Ġplan": 1703,
      "Ġpie": 1704,
      "eces": 1705,
      "ose": 1706,
      "ident": 1707,
      "Ġpro": 1708,
      "Ġshar": 1709,
      "Ġpromised": 1710,
      "Ġpieces": 1711,
      "Ġfox": 1712,
      "ze": 1713,
      "Ġtreat": 1714,
      "ained": 1715,
      "Ġfield": 1716,
      "Ġdolls": 1717,
      "Ġbelie": 1718,
      "set": 1719,
      "Ġwelc": 1720,
      "Ġworried": 1721,
      "Ġblank": 1722,
      "ling": 1723,
      "Ġeverywhere": 1724,
      "Ġtreasure": 1725,
      "Okay": 1726,
      "ol": 1727,
      "Ġgif": 1728,
      "sw": 1729,
      "Ġblanket": 1730,
      "ssed": 1731,
      "ĠMr": 1732,
      "Ġgrate": 1733,
      "Ġacc": 1734,
      "ire": 1735,
      "ĠTommy": 1736,
      "ape": 1737,
      "Ġfaster": 1738,
      "fort": 1739,
      "Ġbar": 1740,
      "cle": 1741,
      "unch": 1742,
      "Ġjoin": 1743,
      "Ġansw": 1744,
      "Ġgrateful": 1745,
      "Ġju": 1746,
      "Ġblack": 1747,
      "Ġfarmer": 1748,
      "Ġplant": 1749,
      "Ġbott": 1750,
      "Ġexcit": 1751,
      "Ġdoctor": 1752,
      "Ġsmart": 1753,
      "Ġcrying": 1754,
      "Ġhelping": 1755,
      "Ġsuch": 1756,
      "Ġbowl": 1757,
      "Ġdangerous": 1758,
      "ee": 1759,
      "iet": 1760,
      "ually": 1761,
      "Ġele": 1762,
      "Ġbike": 1763,
      "Sure": 1764,
      "uit": 1765,
      "Ġbuck": 1766,
      "Ġsnack": 1767,
      "Ġrace": 1768,
      "Ġbroke": 1769,
      "Ġatt": 1770,
      "OK": 1771,
      "Ġmust": 1772,
      "Ġprincess": 1773,
      "Ġmost": 1774,
      "less": 1775,
      "ased": 1776,
      "Ġslowly": 1777,
      "Ġheavy": 1778,
      "Ġreach": 1779,
      "Ġsign": 1780,
      "ere": 1781,
      "Ġtrain": 1782,
      "Ġmagical": 1783,
      "Ġdirty": 1784,
      "ĠJim": 1785,
      "ĠJill": 1786,
      "Ġcour": 1787,
      "ipp": 1788,
      "Ġquiet": 1789,
      "Ġcray": 1790,
      "umb": 1791,
      "Ġsame": 1792,
      "Ġcolorful": 1793,
      "cked": 1794,
      "ipped": 1795,
      "Ġtown": 1796,
      "Ġthrew": 1797,
      "Why": 1798,
      "Ġclosed": 1799,
      "Ġscream": 1800,
      "Hi": 1801,
      "Ġmix": 1802,
      "ng": 1803,
      "Ġnap": 1804,
      "Ġsec": 1805,
      "Ġcourse": 1806,
      "Ġwords": 1807,
      "Ġdragon": 1808,
      "ear": 1809,
      "Ġtwins": 1810,
      "ĠTo": 1811,
      "ored": 1812,
      "Ġdisapp": 1813,
      "ming": 1814,
      "chool": 1815,
      "Ġfruit": 1816,
      "Ġtower": 1817,
      "ho": 1818,
      "bble": 1819,
      "Ġwouldn": 1820,
      "up": 1821,
      "Ġhit": 1822,
      "Ġfeels": 1823,
      "Ġhoped": 1824,
      "Ġheal": 1825,
      "Ġteac": 1826,
      "Ġstepped": 1827,
      "Ġyard": 1828,
      "Ġaccident": 1829,
      "Ġstuck": 1830,
      "Ġcarrot": 1831,
      "Ġmonkey": 1832,
      "Ġbutt": 1833,
      "orrow": 1834,
      "Ġwithout": 1835,
      "Ġriver": 1836,
      "Ġeating": 1837,
      "Ġstand": 1838,
      "Ġbelieve": 1839,
      "Ġheart": 1840,
      "Ġwin": 1841,
      "Ġacross": 1842,
      "Ġmonster": 1843,
      "Ġschool": 1844,
      "ord": 1845,
      "Ġbite": 1846,
      "Ġpot": 1847,
      "ĠFluffy": 1848,
      "Ġbath": 1849,
      "asket": 1850,
      "Ġswings": 1851,
      "Ġbrown": 1852,
      "ĠMolly": 1853,
      "ts": 1854,
      "Ġtoday": 1855,
      "ek": 1856,
      "Ġspr": 1857,
      "Ġpushed": 1858,
      "Ġca": 1859,
      "Ġbasket": 1860,
      "Ġmin": 1861,
      "Ġje": 1862,
      "Ġbring": 1863,
      "issed": 1864,
      "ors": 1865,
      "Ġhig": 1866,
      "ract": 1867,
      "Ġwell": 1868,
      "Ġsecret": 1869,
      "Mia": 1870,
      "Ġthrow": 1871,
      "Ġcoll": 1872,
      "Ġpast": 1873,
      "Ġsmo": 1874,
      "ourn": 1875,
      "Ġleg": 1876,
      "Ġnoises": 1877,
      "eared": 1878,
      "Ġowl": 1879,
      "Ġjourn": 1880,
      "ead": 1881,
      "Ġben": 1882,
      "Ġfence": 1883,
      "Ġgames": 1884,
      "Ġchair": 1885,
      "Ġlon": 1886,
      "Ġteacher": 1887,
      "ier": 1888,
      "Ġcorn": 1889,
      "vel": 1890,
      "Ġwelcome": 1891,
      "Ġclapped": 1892,
      "Ġupset": 1893,
      "br": 1894,
      "Ġgentle": 1895,
      "Ġpack": 1896,
      "ible": 1897,
      "Ġlonely": 1898,
      "Ġturns": 1899,
      "Ġinst": 1900,
      "Ġshoes": 1901,
      "weet": 1902,
      "Ġhappen": 1903,
      "bow": 1904,
      "ĠThank": 1905,
      "Ġneck": 1906,
      "Ġhugs": 1907,
      "Ġpocket": 1908,
      "Ġforget": 1909,
      "Ġbee": 1910,
      "Ġresp": 1911,
      "Ġfairy": 1912,
      "Ġwings": 1913,
      "Ġtrou": 1914,
      "Ġcheered": 1915,
      "Ġdropped": 1916,
      "Ġadventures": 1917,
      "Ġsea": 1918,
      "Ġdrove": 1919,
      "Lila": 1920,
      "Ġaf": 1921,
      "Ġbucket": 1922,
      "Ġfree": 1923,
      "Ġph": 1924,
      "ush": 1925,
      "Ġhigher": 1926,
      "Ġcaught": 1927,
      "Ġexplained": 1928,
      "Ġlate": 1929,
      "Ġwish": 1930,
      "ventually": 1931,
      "Ġsoup": 1932,
      "Ġdry": 1933,
      "phant": 1934,
      "Ġdrink": 1935,
      "Ġwhe": 1936,
      "Ġlonger": 1937,
      "Ġexp": 1938,
      "Ġtom": 1939,
      "Ġnaught": 1940,
      "ĠDaddy": 1941,
      "itting": 1942,
      "Ġmiss": 1943,
      "Ġshop": 1944,
      "Ġrocks": 1945,
      "ung": 1946,
      "Ġorange": 1947,
      "Ġstar": 1948,
      "Ġnaughty": 1949,
      "Ġlunch": 1950,
      "Finally": 1951,
      "Ġwar": 1952,
      "Ġtaking": 1953,
      "raid": 1954,
      "Ġsang": 1955,
      "Ġelephant": 1956,
      "Ġneigh": 1957,
      "Ġcho": 1958,
      "Ġsuddenly": 1959,
      "Ġmine": 1960,
      "Ġrainbow": 1961,
      "Ġswam": 1962,
      "Ġafraid": 1963,
      "Ġplac": 1964,
      "yard": 1965,
      "Ġegg": 1966,
      "Ġneighb": 1967,
      "oun": 1968,
      "fused": 1969,
      "ocked": 1970,
      "cks": 1971,
      "Ġbelong": 1972,
      "Ġyoung": 1973,
      "Ġalong": 1974,
      "ĠEmma": 1975,
      "Ġpiece": 1976,
      "Ġsick": 1977,
      "Ġdist": 1978,
      "Ġmoved": 1979,
      "Ġwise": 1980,
      "de": 1981,
      "Ġbackyard": 1982,
      "Ġes": 1983,
      "bby": 1984,
      "ions": 1985,
      "Ġob": 1986,
      "ĠCome": 1987,
      "Ġapple": 1988,
      "let": 1989,
      "ese": 1990,
      "Ġpig": 1991,
      "Ġthough": 1992,
      "Ġcomes": 1993,
      "ĠGrandma": 1994,
      "Ġbench": 1995,
      "Ġcou": 1996,
      "Ġwoke": 1997,
      "Ġstories": 1998,
      "Ġlife": 1999,
      "ĠHow": 2000,
      "Ġdes": 2001,
      "col": 2002,
      "Do": 2003,
      "Ġshook": 2004,
      "llo": 2005,
      "Ġjar": 2006,
      "Ġseemed": 2007,
      "Ġinv": 2008,
      "Ġnose": 2009,
      "Ġexploring": 2010,
      "Ġband": 2011,
      "apes": 2012,
      "Ġdriver": 2013,
      "vered": 2014,
      "Ġstars": 2015,
      "idge": 2016,
      "ĠMary": 2017,
      "Ġbusy": 2018,
      "Ġkey": 2019,
      "Ġnearby": 2020,
      "Ġsinging": 2021,
      "Ġbat": 2022,
      "Ġtakes": 2023,
      "Ġrelie": 2024,
      "Ġtiny": 2025,
      "ity": 2026,
      "Ġnest": 2027,
      "Ġnothing": 2028,
      "Ġmail": 2029,
      "ces": 2030,
      "Later": 2031,
      "Ġsounds": 2032,
      "Ġmad": 2033,
      "ittens": 2034,
      "Ġwondered": 2035,
      "ountain": 2036,
      "Ġmil": 2037,
      "Ġshapes": 2038,
      "ward": 2039,
      "Ġspoon": 2040,
      "thday": 2041,
      "ball": 2042,
      "anch": 2043,
      "Ġbranch": 2044,
      "Ġarms": 2045,
      "ail": 2046,
      "Ġjuice": 2047,
      "Ġcarry": 2048,
      "Ġcir": 2049,
      "Ġdays": 2050,
      "Ġlift": 2051,
      "Ġgift": 2052,
      "Ġround": 2053,
      "Ġwhist": 2054,
      "reet": 2055,
      "Ġmark": 2056,
      "Ġsitting": 2057,
      "Ġholding": 2058,
      "itty": 2059,
      "aughter": 2060,
      "erest": 2061,
      "Ġking": 2062,
      "ining": 2063,
      "Ġinterest": 2064,
      "ours": 2065,
      "ĠNo": 2066,
      "Of": 2067,
      "Ġwra": 2068,
      "ĠTweet": 2069,
      "Ġpurp": 2070,
      "Ġcute": 2071,
      "Ġstreet": 2072,
      "Ġpres": 2073,
      "Ġdisco": 2074,
      "gged": 2075,
      "Ġeas": 2076,
      "Ġhope": 2077,
      "Ġaccidentally": 2078,
      "Ġkite": 2079,
      "Ġbirthday": 2080,
      "Ġcheese": 2081,
      "Ġlaughing": 2082,
      "Ġpatient": 2083,
      "ped": 2084,
      "ndp": 2085,
      "Ġletter": 2086,
      "Ġsunny": 2087,
      "Ġinstead": 2088,
      "ĠGo": 2089,
      "Ġact": 2090,
      "Ġboun": 2091,
      "Ġrelieved": 2092,
      "itten": 2093,
      "Ġmist": 2094,
      "Ġforever": 2095,
      "Ġbread": 2096,
      "Ġsnowman": 2097,
      "itch": 2098,
      "Ġdaughter": 2099,
      "Ġpower": 2100,
      "Ġanyone": 2101,
      "Ġfing": 2102,
      "Ġmilk": 2103,
      "Ġinc": 2104,
      "alm": 2105,
      "ĠFinally": 2106,
      "Ġfit": 2107,
      "Ġpudd": 2108,
      "Ġgigg": 2109,
      "eth": 2110,
      "Ġyear": 2111,
      "uched": 2112,
      "Ġtouched": 2113,
      "Ġhello": 2114,
      "pping": 2115,
      "Ġcozy": 2116,
      "ĠInside": 2117,
      "ove": 2118,
      "Ġimag": 2119,
      "adow": 2120,
      "ize": 2121,
      "ĠSoon": 2122,
      "to": 2123,
      "Ġ3": 2124,
      "Ġcomfort": 2125,
      "Ġcave": 2126,
      "Ġspo": 2127,
      "Ġkick": 2128,
      "Ġret": 2129,
      "Ġhuge": 2130,
      "Hey": 2131,
      "Ġlucky": 2132,
      "Ġpromise": 2133,
      "Ġpurple": 2134,
      "ert": 2135,
      "Ġear": 2136,
      "Ġpuzz": 2137,
      "Ġcrayons": 2138,
      "Ġjourney": 2139,
      "Ġlater": 2140,
      "Ġgives": 2141,
      "Ġpeace": 2142,
      "blem": 2143,
      "irt": 2144,
      "Ġplane": 2145,
      "shine": 2146,
      "ĠMama": 2147,
      "Ġstorm": 2148,
      "board": 2149,
      "Ġproblem": 2150,
      "Ġexciting": 2151,
      "And": 2152,
      "Ġce": 2153,
      "Ġmeet": 2154,
      "Ġsunshine": 2155,
      "Ġsearched": 2156,
      "Ġsmiling": 2157,
      "Ġcreature": 2158,
      "unt": 2159,
      "Ġcow": 2160,
      "Ġpers": 2161,
      "Ġducks": 2162,
      "Ġgrab": 2163,
      "Ġreturn": 2164,
      "Ġsandw": 2165,
      "ĠWhy": 2166,
      "Ġdanced": 2167,
      "Ġsharp": 2168,
      "Ġcoat": 2169,
      "Ġwatching": 2170,
      "ndpa": 2171,
      "aur": 2172,
      "ĠSomet": 2173,
      "fish": 2174,
      "Ġkiss": 2175,
      "Ġrespect": 2176,
      "ness": 2177,
      "umber": 2178,
      "ten": 2179,
      "Ġbought": 2180,
      "Ġpresent": 2181,
      "ement": 2182,
      "Ġquest": 2183,
      "Ġwrite": 2184,
      "Ġswimming": 2185,
      "Ġroad": 2186,
      "epend": 2187,
      "ced": 2188,
      "Ġpointed": 2189,
      "Ġzoom": 2190,
      "Ġap": 2191,
      "Ġsmelled": 2192,
      "'d": 2193,
      "Ġtalked": 2194,
      "Bob": 2195,
      "Ġsur": 2196,
      "Ġbottle": 2197,
      "Ġperson": 2198,
      "Good": 2199,
      "Ġtun": 2200,
      "og": 2201,
      "Ġdi": 2202,
      "ĠSammy": 2203,
      "Ġtrouble": 2204,
      "Ġtasty": 2205,
      "ont": 2206,
      "Ġent": 2207,
      "oose": 2208,
      "ub": 2209,
      "Ġcard": 2210,
      "Ġinteresting": 2211,
      "Ġbush": 2212,
      "Ġhealthy": 2213,
      "Ġrolled": 2214,
      "Ġclouds": 2215,
      "Ġpill": 2216,
      "Ġtalking": 2217,
      "Ġcollect": 2218,
      "ĠSt": 2219,
      "ĠRe": 2220,
      "Ġonto": 2221,
      "els": 2222,
      "Ġvill": 2223,
      "Ġbutton": 2224,
      "Ġser": 2225,
      "Ġfeather": 2226,
      "Ġfront": 2227,
      "Ġhon": 2228,
      "Ġloves": 2229,
      "ĠCh": 2230,
      "ĠJimmy": 2231,
      "Ġmatter": 2232,
      "la": 2233,
      "Ġhoney": 2234,
      "Ġpar": 2235,
      "Ġpract": 2236,
      "Ġcoin": 2237,
      "Ġsuc": 2238,
      "Ġmind": 2239,
      "Ġworm": 2240,
      "Ġwhole": 2241,
      "Ġlovely": 2242,
      "owed": 2243,
      "Ġstu": 2244,
      "Ġsaf": 2245,
      "Ġsack": 2246,
      "Ġteach": 2247,
      "Ġpath": 2248,
      "Ġlast": 2249,
      "Ġwide": 2250,
      "Ġpass": 2251,
      "ĠAl": 2252,
      "Ġfoot": 2253,
      "Ġputs": 2254,
      "Ġsnake": 2255,
      "Ġwhich": 2256,
      "Ġgoes": 2257,
      "mer": 2258,
      "Ġ'": 2259,
      "Ġrope": 2260,
      "Ġhor": 2261,
      "Lucy": 2262,
      "Ġthin": 2263,
      "ife": 2264,
      "Ġcheer": 2265,
      "amed": 2266,
      "Ġminut": 2267,
      "Ġadm": 2268,
      "Ġtasted": 2269,
      "Ġwearing": 2270,
      "Ġpop": 2271,
      "isa": 2272,
      "Ġrec": 2273,
      "ĠJust": 2274,
      "Ġshining": 2275,
      "ĠDon": 2276,
      "izz": 2277,
      "Ġknee": 2278,
      "Ġsupp": 2279,
      "Ġwom": 2280,
      "Ġphone": 2281,
      "Ġplaces": 2282,
      "ider": 2283,
      "Ġorgan": 2284,
      "Ġpretended": 2285,
      "Ġgiant": 2286,
      "Ġbark": 2287,
      "ĠMittens": 2288,
      "ress": 2289,
      "Ġeag": 2290,
      "Ġshell": 2291,
      "Ġzoo": 2292,
      "Ġasleep": 2293,
      "Ġwaiting": 2294,
      "Ġdrive": 2295,
      "Ġdirt": 2296,
      "Ġwave": 2297,
      "Ġslid": 2298,
      "Ġcouch": 2299,
      "Ġlay": 2300,
      "Ġbuilding": 2301,
      "Ġoven": 2302,
      "Ġfaces": 2303,
      "Ġprot": 2304,
      "Ġclever": 2305,
      "Ġgently": 2306,
      "cer": 2307,
      "Ġwild": 2308,
      "Ġchocol": 2309,
      "ular": 2310,
      "Ġemb": 2311,
      "hile": 2312,
      "Ġapples": 2313,
      "ale": 2314,
      "Ġpile": 2315,
      "Ġprotect": 2316,
      "ching": 2317,
      "Ġscreamed": 2318,
      "Ġtomorrow": 2319,
      "ĠSome": 2320,
      "St": 2321,
      "Ġcart": 2322,
      "Ġlad": 2323,
      "lla": 2324,
      "Ġspent": 2325,
      "Ġspotted": 2326,
      "Ġmud": 2327,
      "Ġpush": 2328,
      "mo": 2329,
      "Ġwoman": 2330,
      "Ġgather": 2331,
      "Ġmyster": 2332,
      "Ġrocket": 2333,
      "Ġtrip": 2334,
      "Ġforgive": 2335,
      "Ġmed": 2336,
      "Ġrob": 2337,
      "Ġconfused": 2338,
      "Ġgun": 2339,
      "Ġring": 2340,
      "Ġspin": 2341,
      "In": 2342,
      "sc": 2343,
      "Ġsal": 2344,
      "ĠSometimes": 2345,
      "Come": 2346,
      "arra": 2347,
      "ian": 2348,
      "cean": 2349,
      "ĠWith": 2350,
      "Ġembarra": 2351,
      "Ġocean": 2352,
      "lex": 2353,
      "Ġrobot": 2354,
      "Ġchocolate": 2355,
      "Ġblew": 2356,
      "Ġspicy": 2357,
      "Every": 2358,
      "Tommy": 2359,
      "Ġteeth": 2360,
      "Ġcalm": 2361,
      "Ġcookie": 2362,
      "Ġcorner": 2363,
      "Ġash": 2364,
      "Just": 2365,
      "Ġant": 2366,
      "Ġanswer": 2367,
      "Ġign": 2368,
      "Ġshr": 2369,
      "ĠPlease": 2370,
      "Ġfinish": 2371,
      "Ġfighting": 2372,
      "arge": 2373,
      "nic": 2374,
      "erly": 2375,
      "Ġscar": 2376,
      "Ġval": 2377,
      "Ġladder": 2378,
      "Ġmach": 2379,
      "Ġseat": 2380,
      "Ġchick": 2381,
      "nny": 2382,
      "Ġtaste": 2383,
      "Ġpicnic": 2384,
      "Ġfixed": 2385,
      "Ġsplas": 2386,
      "ment": 2387,
      "Ġfurry": 2388,
      "Ġbell": 2389,
      "ĠLe": 2390,
      "unk": 2391,
      "Ġtool": 2392,
      "Ġtries": 2393,
      "Ġsongs": 2394,
      "per": 2395,
      "Ġshy": 2396,
      "Molly": 2397,
      "Ġcloth": 2398,
      "Ġhiding": 2399,
      "old": 2400,
      "Ġwash": 2401,
      "Ġnet": 2402,
      "Ġlive": 2403,
      "Ġhorse": 2404,
      "pper": 2405,
      "Ġmaybe": 2406,
      "ÅĵI": 2407,
      "hnny": 2408,
      "Ġrep": 2409,
      "not": 2410,
      "ĠIf": 2411,
      "als": 2412,
      "Ġwhenever": 2413,
      "Ġmoon": 2414,
      "Ġspe": 2415,
      "Ġthese": 2416,
      "Ġfeet": 2417,
      "lower": 2418,
      "Ġpuddle": 2419,
      "Ġcannot": 2420,
      "Ġtrust": 2421,
      "Ġappeared": 2422,
      "bbles": 2423,
      "Ġneighbor": 2424,
      "Ġneckl": 2425,
      "Ġvillage": 2426,
      "Ġpool": 2427,
      "lebr": 2428,
      "Ġspider": 2429,
      "ones": 2430,
      "Ġcelebr": 2431,
      "ĠTheir": 2432,
      "Ġstir": 2433,
      "Ġhum": 2434,
      "Ġban": 2435,
      "Ġpour": 2436,
      "ird": 2437,
      "ighed": 2438,
      "oph": 2439,
      "ĠJenny": 2440,
      "Ġsmooth": 2441,
      "My": 2442,
      "ned": 2443,
      "Ġple": 2444,
      "Ġcolour": 2445,
      "Ġbarked": 2446,
      "Ġpuzzle": 2447,
      "Ġeventually": 2448,
      "Ġstep": 2449,
      "Ġcoo": 2450,
      "Ġhears": 2451,
      "Ġshirt": 2452,
      "Now": 2453,
      "Ġlarge": 2454,
      "Ġbal": 2455,
      "Ġdelight": 2456,
      "Soon": 2457,
      "Ġtid": 2458,
      "Ġkitten": 2459,
      "Ġembarrassed": 2460,
      "gly": 2461,
      "Ġbugs": 2462,
      "'ve": 2463,
      "Mum": 2464,
      "Ġugly": 2465,
      "Ġsol": 2466,
      "Ġsticks": 2467,
      "Ġcreative": 2468,
      "Jim": 2469,
      "arm": 2470,
      "ying": 2471,
      "airs": 2472,
      "urse": 2473,
      "oin": 2474,
      "Ġsel": 2475,
      "Ġtea": 2476,
      "den": 2477,
      "ground": 2478,
      "Ġburn": 2479,
      "Ġpizz": 2480,
      "Ġtells": 2481,
      "eb": 2482,
      "Ġmissed": 2483,
      "Ġknocked": 2484,
      "Ġwip": 2485,
      "ĠTV": 2486,
      "Ġsave": 2487,
      "aser": 2488,
      "Ġnumber": 2489,
      "Ġstret": 2490,
      "ungle": 2491,
      "Ġnecklace": 2492,
      "Ġwore": 2493,
      "ancy": 2494,
      "Ġpaw": 2495,
      "Ġjungle": 2496,
      "Ġmeant": 2497,
      "getable": 2498,
      "Ġgrew": 2499,
      "Ġfold": 2500,
      "pty": 2501,
      "Ġnut": 2502,
      "ony": 2503,
      "aul": 2504,
      "umpy": 2505,
      "Ġsplash": 2506,
      "dle": 2507,
      "ĠOn": 2508,
      "Ġremind": 2509,
      "Ġvegetable": 2510,
      "Ġtightly": 2511,
      "Ġempty": 2512,
      "Ġwhistle": 2513,
      "Ġmot": 2514,
      "Ġseek": 2515,
      "ĠEmily": 2516,
      "read": 2517,
      "era": 2518,
      "Ġspray": 2519,
      "Ġfeed": 2520,
      "Ġchased": 2521,
      "ĠKitty": 2522,
      "Ġsparkly": 2523,
      "Ġclear": 2524,
      "Ġleaf": 2525,
      "ult": 2526,
      "Ġtest": 2527,
      "Ġrude": 2528,
      "Ġfil": 2529,
      "Ġpay": 2530,
      "Ġgen": 2531,
      "Ġyourself": 2532,
      "Ġgray": 2533,
      "box": 2534,
      "Ġav": 2535,
      "Ġspread": 2536,
      "Ġlem": 2537,
      "Ġpin": 2538,
      "ond": 2539,
      "Ġstone": 2540,
      "Ġhidden": 2541,
      "Ġpizza": 2542,
      "Ġgar": 2543,
      "Ġdrew": 2544,
      "ets": 2545,
      "Ġflut": 2546,
      "Ġdisappoin": 2547,
      "Ġsour": 2548,
      "Ġforward": 2549,
      "ustr": 2550,
      "Ġbanan": 2551,
      "Ġselfish": 2552,
      "vous": 2553,
      "Ġpri": 2554,
      "ator": 2555,
      "Ġjumping": 2556,
      "Ġtreats": 2557,
      "hin": 2558,
      "Ġstra": 2559,
      "Stop": 2560,
      "cy": 2561,
      "Ġfancy": 2562,
      "ĠBe": 2563,
      "Ġroar": 2564,
      "Ġcirc": 2565,
      "Ġline": 2566,
      "Ġmountain": 2567,
      "Ġpolice": 2568,
      "Ġsnacks": 2569,
      "most": 2570,
      "ĠBr": 2571,
      "Ġgold": 2572,
      "Ġblow": 2573,
      "Ġpan": 2574,
      "Ġstood": 2575,
      "Ġcarried": 2576,
      "ote": 2577,
      "Dad": 2578,
      "Ġshelf": 2579,
      "body": 2580,
      "ital": 2581,
      "Ġpir": 2582,
      "Ġgas": 2583,
      "ato": 2584,
      "Ġfrustr": 2585,
      "uce": 2586,
      "ches": 2587,
      "Ġner": 2588,
      "orry": 2589,
      "Ġlanded": 2590,
      "Ġeggs": 2591,
      "Ġbreath": 2592,
      "Ġyelled": 2593,
      "Ġcarrots": 2594,
      "Ġstanding": 2595,
      "Please": 2596,
      "ah": 2597,
      "Ġscre": 2598,
      "Ġspoil": 2599,
      "Ġhours": 2600,
      "Ġreg": 2601,
      "Ġalmost": 2602,
      "Ġeasy": 2603,
      "Ġseed": 2604,
      "Ġsleepy": 2605,
      "Ġnervous": 2606,
      "Ġcri": 2607,
      "Ġhosp": 2608,
      "Ġsharing": 2609,
      "Ġpeaceful": 2610,
      "Ġber": 2611,
      "Ġnods": 2612,
      "ery": 2613,
      "Ġmeadow": 2614,
      "Ġstring": 2615,
      "Ġlegs": 2616,
      "Ġhospital": 2617,
      "ĠTeddy": 2618,
      "ĠLisa": 2619,
      "Ġdisappointed": 2620,
      "Ġmachine": 2621,
      "Ġtidy": 2622,
      "Ġfrustrated": 2623,
      "ĠMy": 2624,
      "ĠEverywhere": 2625,
      "Ġgroup": 2626,
      "Ġpillow": 2627,
      "Ġsandwich": 2628,
      "Ġsque": 2629,
      "Ġcries": 2630,
      "Ġwhis": 2631,
      "Ġknowing": 2632,
      "Ġhonest": 2633,
      "Ġashamed": 2634,
      "af": 2635,
      "Ġcross": 2636,
      "Ġflag": 2637,
      "iff": 2638,
      "Ġgarage": 2639,
      "iger": 2640,
      "Ġballs": 2641,
      "aking": 2642,
      "Ġfig": 2643,
      "Ġcand": 2644,
      "osaur": 2645,
      "ym": 2646,
      "Ġfear": 2647,
      "issors": 2648,
      "Ġhur": 2649,
      "Ġminutes": 2650,
      "Mama": 2651,
      "ĠJake": 2652,
      "Ġruined": 2653,
      "Ġmessy": 2654,
      "Ġmysterious": 2655,
      "Ġscissors": 2656,
      "Ġdecor": 2657,
      "ĠEven": 2658,
      "Ġunderstood": 2659,
      "Ġscarf": 2660,
      "Ġgener": 2661,
      "There": 2662,
      "ano": 2663,
      "cept": 2664,
      "izzy": 2665,
      "eterm": 2666,
      "Ġpowerful": 2667,
      "Ġfinger": 2668,
      "Be": 2669,
      "Ġplate": 2670,
      "Ġknight": 2671,
      "Ġclown": 2672,
      "Ġtrue": 2673,
      "obby": 2674,
      "Ġplants": 2675,
      "Ġdeterm": 2676,
      "ates": 2677,
      "oof": 2678,
      "Ġasking": 2679,
      "ĠTogether": 2680,
      "pack": 2681,
      "Ġwagged": 2682,
      "itter": 2683,
      "Ġcrab": 2684,
      "ĠJohnny": 2685,
      "ĠAnn": 2686,
      "Ġscr": 2687,
      "ecially": 2688,
      "Ġstuff": 2689,
      "assed": 2690,
      "ĠPeter": 2691,
      "Ġmotor": 2692,
      "kin": 2693,
      "ĠOK": 2694,
      "Ġpassed": 2695,
      "Ġworking": 2696,
      "Ġbored": 2697,
      "iness": 2698,
      "Ġgets": 2699,
      "pecially": 2700,
      "ti": 2701,
      "Ġwaves": 2702,
      "Ġfill": 2703,
      "Ġgate": 2704,
      "Ġdinosaur": 2705,
      "Ġpolite": 2706,
      "Ġespecially": 2707,
      "elly": 2708,
      "Ġpray": 2709,
      "Ġtaught": 2710,
      "Ġtears": 2711,
      "Where": 2712,
      "Ġsheep": 2713,
      "Ġexam": 2714,
      "Ġjew": 2715,
      "iddle": 2716,
      "Ġbecome": 2717,
      "Ġvase": 2718,
      "erp": 2719,
      "ĠMum": 2720,
      "Ġvan": 2721,
      "ĠLeo": 2722,
      "ual": 2723,
      "Ġtaken": 2724,
      "Ġdancing": 2725,
      "Ġkissed": 2726,
      "Ġglass": 2727,
      "Ġhang": 2728,
      "Ġhel": 2729,
      "Ġboard": 2730,
      "ensive": 2731,
      "Ġcomfortable": 2732,
      "light": 2733,
      "Ġtick": 2734,
      "Ġsighed": 2735,
      "Ġones": 2736,
      "Ġdrum": 2737,
      "Ġvegetables": 2738,
      "Ġlead": 2739,
      "Ġcheck": 2740,
      "Ġshoot": 2741,
      "Ġfruits": 2742,
      "Ġsaved": 2743,
      "Ġboys": 2744,
      "Ġchew": 2745,
      "Ġexpensive": 2746,
      "Ġcage": 2747,
      "Ġoften": 2748,
      "Ġpoor": 2749,
      "Ġtwirl": 2750,
      "Ġchest": 2751,
      "Ġwis": 2752,
      "Ġweek": 2753,
      "Ġchange": 2754,
      "Ġsuccess": 2755,
      "Jane": 2756,
      "Ġplayground": 2757,
      "ĠBl": 2758,
      "Ġwrote": 2759,
      "Ġfake": 2760,
      "Ġbrush": 2761,
      "Ġgiggled": 2762,
      "Ġreturned": 2763,
      "Ġship": 2764,
      "Ġanswered": 2765,
      "selves": 2766,
      "Ġsweetie": 2767,
      "Ġbathroom": 2768,
      "Ġgenerous": 2769,
      "Ġfather": 2770,
      "Ġclass": 2771,
      "Ġgrumpy": 2772,
      "Ġshore": 2773,
      "ĠAt": 2774,
      "Ġcloset": 2775,
      "Ġmedic": 2776,
      "ina": 2777,
      "Ġlose": 2778,
      "usie": 2779,
      "Ġfluffy": 2780,
      "Ġguess": 2781,
      "Ġpacked": 2782,
      "Ġwander": 2783,
      "To": 2784,
      "Ġmummy": 2785,
      "Ġglue": 2786,
      "Ġdrawing": 2787,
      "ots": 2788,
      "ops": 2789,
      "Ġhopping": 2790,
      "ĠBrown": 2791,
      "Ġmiddle": 2792,
      "Ġpicks": 2793,
      "Ġteam": 2794,
      "Ġfridge": 2795,
      "Ġesc": 2796,
      "Ġlemon": 2797,
      "Ġlock": 2798,
      "Ġmistake": 2799,
      "Ġpleased": 2800,
      "ĠZ": 2801,
      "Ġlit": 2802,
      "imp": 2803,
      "ĠRex": 2804,
      "Ġmedicine": 2805,
      "Ġweak": 2806,
      "Ġdest": 2807,
      "ork": 2808,
      "ella": 2809,
      "Ġexcitement": 2810,
      "Are": 2811,
      "ating": 2812,
      "aged": 2813,
      "uddy": 2814,
      "Ġcaterp": 2815,
      "Ġmatch": 2816,
      "Ġcaterpill": 2817,
      "Ġque": 2818,
      "Ġclap": 2819,
      "Ġshows": 2820,
      "Ġind": 2821,
      "Ġnod": 2822,
      "ushed": 2823,
      "Ġspend": 2824,
      "Ġcleaned": 2825,
      "Ġsailed": 2826,
      "Ġdetermined": 2827,
      "Ġdogs": 2828,
      "Ġprince": 2829,
      "Ġbridge": 2830,
      "Ġdecide": 2831,
      "Ġtag": 2832,
      "Ġword": 2833,
      "Who": 2834,
      "Ġang": 2835,
      "Ġboss": 2836,
      "Ġquestions": 2837,
      "Ġcap": 2838,
      "elp": 2839,
      "ĠYour": 2840,
      "Ġord": 2841,
      "Ġadd": 2842,
      "Sarah": 2843,
      "mb": 2844,
      "Ġtent": 2845,
      "Ġstones": 2846,
      "Ġcontent": 2847,
      "Ġdish": 2848,
      "oop": 2849,
      "Ġsold": 2850,
      "Ġsunf": 2851,
      "Ġtunn": 2852,
      "Ġmov": 2853,
      "Ġdiscovered": 2854,
      "Ġcaterpillar": 2855,
      "Ġlying": 2856,
      "Ġhurts": 2857,
      "Ġdrank": 2858,
      "Sorry": 2859,
      "Ġboring": 2860,
      "Ġfine": 2861,
      "Ġmap": 2862,
      "Ġrough": 2863,
      "Ġmic": 2864,
      "Ġcover": 2865,
      "Ġsug": 2866,
      "Ġpil": 2867,
      "illi": 2868,
      "Ġglow": 2869,
      "ete": 2870,
      "Ġeye": 2871,
      "Ġmighty": 2872,
      "Ġsoap": 2873,
      "Ġed": 2874,
      "Ġbedroom": 2875,
      "Ġcrawl": 2876,
      "Ġtie": 2877,
      "Ġhorn": 2878,
      "Ġdig": 2879,
      "Ġsmelly": 2880,
      "Ġdisappeared": 2881,
      "Me": 2882,
      "und": 2883,
      "Ġfour": 2884,
      "Ġbody": 2885,
      "asing": 2886,
      "Ġcovered": 2887,
      "Ġyours": 2888,
      "Ġthankful": 2889,
      "Ġsugar": 2890,
      "Sue": 2891,
      "Ġbake": 2892,
      "Ġfool": 2893,
      "Ġmu": 2894,
      "Ġgrandpa": 2895,
      "Ġcalling": 2896,
      "Ġwheel": 2897,
      "Ġdistance": 2898,
      "ha": 2899,
      "Ġter": 2900,
      "Ġaw": 2901,
      "llie": 2902,
      "Ġmagn": 2903,
      "Ġqueen": 2904,
      "Help": 2905,
      "Ġtape": 2906,
      "Ġbone": 2907,
      "Ġmoving": 2908,
      "Ġrelax": 2909,
      "Jill": 2910,
      "port": 2911,
      "arl": 2912,
      "Ġrid": 2913,
      "ĠLook": 2914,
      "Ġaccept": 2915,
      "ory": 2916,
      "Ġneeds": 2917,
      "Ġgathered": 2918,
      "Ġbalance": 2919,
      "Jimmy": 2920,
      "ĠYes": 2921,
      "Ġrare": 2922,
      "Their": 2923,
      "ĠEnd": 2924,
      "land": 2925,
      "Ġfis": 2926,
      "Ġsil": 2927,
      "umbled": 2928,
      "Ġonce": 2929,
      "Ġknife": 2930,
      "Ġfamous": 2931,
      "Ġtowel": 2932,
      "na": 2933,
      "Ġchoose": 2934,
      "Ġborrow": 2935,
      "ready": 2936,
      "Ġjam": 2937,
      "Ġmeasure": 2938,
      "Ġbranc": 2939,
      "Ġbranches": 2940,
      "ressed": 2941,
      "enny": 2942,
      "Ġskipped": 2943,
      "ination": 2944,
      "Ġlog": 2945,
      "Ġalready": 2946,
      "Ġjoke": 2947,
      "olog": 2948,
      "work": 2949,
      "ĠWhere": 2950,
      "Ġchase": 2951,
      "Ġsplashed": 2952,
      "Ġgoat": 2953,
      "Ġwalks": 2954,
      "Ġincred": 2955,
      "Ġcam": 2956,
      "Ġdepend": 2957,
      "Ġfeathers": 2958,
      "ilt": 2959,
      "anut": 2960,
      "ĠFred": 2961,
      "Ġtrucks": 2962,
      "Ġpointing": 2963,
      "Ġeager": 2964,
      "Ġsunflower": 2965,
      "iv": 2966,
      "Ġears": 2967,
      "Ġsell": 2968,
      "ĠMrs": 2969,
      "Ġsmoke": 2970,
      "Sally": 2971,
      "hip": 2972,
      "Ġtoug": 2973,
      "imed": 2974,
      "Ġdeer": 2975,
      "Ġapolog": 2976,
      "Ġrecord": 2977,
      "ĠBlue": 2978,
      "Sp": 2979,
      "edient": 2980,
      "ately": 2981,
      "adi": 2982,
      "Ġlicked": 2983,
      "Ġswan": 2984,
      "Ġgrown": 2985,
      "Ġadventur": 2986,
      "gy": 2987,
      "ĠY": 2988,
      "Ġthick": 2989,
      "Ġsaying": 2990,
      "Ġcraw": 2991,
      "Ġhappening": 2992,
      "Ġturt": 2993,
      "Ġpant": 2994,
      "Ġjelly": 2995,
      "Ġlazy": 2996,
      "Ġbull": 2997,
      "Ġcrawled": 2998,
      "usual": 2999,
      "ĠLittle": 3000,
      "Ġunusual": 3001,
      "Ġadventurous": 3002,
      "ĠU": 3003,
      "Ġsight": 3004,
      "Ġmanaged": 3005,
      "Ġoffice": 3006,
      "Ġsugg": 3007,
      "Ġham": 3008,
      "rag": 3009,
      "Ġnoisy": 3010,
      "Ġcost": 3011,
      "Ġgrace": 3012,
      "Ġwrapped": 3013,
      "Ġsuggest": 3014,
      "fast": 3015,
      "amond": 3016,
      "Ġmoms": 3017,
      "Ġcoins": 3018,
      "Ġdreamed": 3019,
      "Gra": 3020,
      "ique": 3021,
      "yal": 3022,
      "?\".": 3023,
      "Ġbubbles": 3024,
      "Ġmir": 3025,
      "Ġstri": 3026,
      "arth": 3027,
      "Ġext": 3028,
      "Ġknows": 3029,
      "Ġtwig": 3030,
      "Ġwolf": 3031,
      "Ġdoesn": 3032,
      "Ġfalls": 3033,
      "Ġcrayon": 3034,
      "ext": 3035,
      "Ġrich": 3036,
      "Ġfigure": 3037,
      "Ġtough": 3038,
      "head": 3039,
      "Ġbarn": 3040,
      "ured": 3041,
      "Ġcleaning": 3042,
      "Ġfrown": 3043,
      "Ġunique": 3044,
      "Ġcrown": 3045,
      "Ġbreakfast": 3046,
      "Ġcab": 3047,
      "Ġterri": 3048,
      "aw": 3049,
      "Ġmole": 3050,
      "Mummy": 3051,
      "Ġtiger": 3052,
      "Ġthose": 3053,
      "alous": 3054,
      "Ġkindness": 3055,
      "Ġtele": 3056,
      "Ġgiving": 3057,
      "Ġmixed": 3058,
      "Ġcolourful": 3059,
      "Ġeld": 3060,
      "ages": 3061,
      "Ġpeanut": 3062,
      "Ġimpressed": 3063,
      "Ġdreams": 3064,
      "Ġjealous": 3065,
      "Ġobedient": 3066,
      "Ġdiamond": 3067,
      "Ġsafely": 3068,
      "Ġtools": 3069,
      "Ġtunnel": 3070,
      "Ġincredible": 3071,
      "ature": 3072,
      "orge": 3073,
      "Ġagainst": 3074,
      "uggled": 3075,
      "Ġbuttons": 3076,
      "ĠTweety": 3077,
      "Ġfoolish": 3078,
      "ror": 3079,
      "Ġflash": 3080,
      "Ġdead": 3081,
      "Ġcabin": 3082,
      "het": 3083,
      "Ġbitter": 3084,
      "Ġhunt": 3085,
      "anged": 3086,
      "Ġhero": 3087,
      "Ġroof": 3088,
      "Ġlean": 3089,
      "Ġwrap": 3090,
      "Ġsquee": 3091,
      "Ġbrilli": 3092,
      "Ġoffered": 3093,
      "Ġbottom": 3094,
      "Ġflute": 3095,
      "Ġdependable": 3096,
      "How": 3097,
      "Ġdizzy": 3098,
      "cil": 3099,
      "ĠSn": 3100,
      "Ġmeans": 3101,
      "Ġarg": 3102,
      "Ġorganized": 3103,
      "ines": 3104,
      "Ġyet": 3105,
      "Here": 3106,
      "Ġbrilliant": 3107,
      "Ġadded": 3108,
      "Ġtwist": 3109,
      "ache": 3110,
      "Ġstronger": 3111,
      "Ġperform": 3112,
      "omed": 3113,
      "Ġloyal": 3114,
      "Ġlouder": 3115,
      "upid": 3116,
      "Ġjewel": 3117,
      "ention": 3118,
      "Amy": 3119,
      "Billy": 3120,
      "Ġdolp": 3121,
      "Ġscare": 3122,
      "Ġseem": 3123,
      "Ġlifted": 3124,
      "Ġmarket": 3125,
      "Ġberries": 3126,
      "Ġextra": 3127,
      "Ġmelt": 3128,
      "ĠWell": 3129,
      "aghet": 3130,
      "Ġpainting": 3131,
      "Ġhats": 3132,
      "Ġstudy": 3133,
      "Ġturtle": 3134,
      "aghetti": 3135,
      "ither": 3136,
      "Ġlamp": 3137,
      "Ġtrunk": 3138,
      "Ġwalls": 3139,
      "Ġpencil": 3140,
      "Al": 3141,
      "ye": 3142,
      "Ġfre": 3143,
      "Ġweal": 3144,
      "Ġspaghetti": 3145,
      "Ġbags": 3146,
      "Ġbelonged": 3147,
      "fic": 3148,
      "zed": 3149,
      "Ġer": 3150,
      "ĠSusie": 3151,
      "Ġweird": 3152,
      "Ġpee": 3153,
      "apping": 3154,
      "Ġcircles": 3155,
      "Ġedge": 3156,
      "Ġharm": 3157,
      "keep": 3158,
      "Ġshake": 3159,
      "Ġslipped": 3160,
      "ĠBobo": 3161,
      "Ġlaughs": 3162,
      "Ġcheerful": 3163,
      "Ġbanana": 3164,
      "Ġangel": 3165,
      "Ġwagon": 3166,
      "Ġok": 3167,
      "Ġuseful": 3168,
      "Ġcrack": 3169,
      "Ġballoons": 3170,
      "Ġsearch": 3171,
      "Ġpants": 3172,
      "cient": 3173,
      "eorge": 3174,
      "Ġstupid": 3175,
      "Ġrealised": 3176,
      "Ġusing": 3177,
      "umbers": 3178,
      "Ġelderly": 3179,
      "erry": 3180,
      "Well": 3181,
      "Ġyarn": 3182,
      "Ġstream": 3183,
      "Ġskin": 3184,
      "laimed": 3185,
      "ject": 3186,
      "Ġcop": 3187,
      "Ġhappiness": 3188,
      "Ġbushes": 3189,
      "Ġwand": 3190,
      "Ġcher": 3191,
      "emo": 3192,
      "Ġexclaimed": 3193,
      "Ġdiffic": 3194,
      "Ġpainted": 3195,
      "Ġcact": 3196,
      "lies": 3197,
      "Ġisland": 3198,
      "Ġunl": 3199,
      "Ġsounded": 3200,
      "ĠBobby": 3201,
      "Ġancient": 3202,
      "ĠAre": 3203,
      "ĠWh": 3204,
      "Ġswe": 3205,
      "Ġpicking": 3206,
      "Re": 3207,
      "Ġnumbers": 3208,
      "Ġhelps": 3209,
      "ĠRed": 3210,
      "Ġjuicy": 3211,
      "Ġindepend": 3212,
      "Ġcamera": 3213,
      "Ġmirror": 3214,
      "vice": 3215,
      "Ġchar": 3216,
      "Ġjog": 3217,
      "Ġleaving": 3218,
      "Ġow": 3219,
      "Ġpepper": 3220,
      "Ġfavour": 3221,
      "Ġspoiled": 3222,
      "Ġmovie": 3223,
      "Ġdifficult": 3224,
      "Ġgem": 3225,
      "Ġmod": 3226,
      "ĠAlice": 3227,
      "Ġchicken": 3228,
      "irp": 3229,
      "Ġlaw": 3230,
      "Ġsmaller": 3231,
      "Ġstubb": 3232,
      "Ġbossy": 3233,
      "Ġtimes": 3234,
      "Ġson": 3235,
      "Ġloudly": 3236,
      "ippo": 3237,
      "aid": 3238,
      "inal": 3239,
      "inary": 3240,
      "Ġcone": 3241,
      "Ġcro": 3242,
      "ĠMark": 3243,
      "ĠElla": 3244,
      "Ġenvel": 3245,
      "Ġboxes": 3246,
      "Ġcactus": 3247,
      "ĠBu": 3248,
      "Ġdove": 3249,
      "Ġpost": 3250,
      "Joe": 3251,
      "ations": 3252,
      "Ġfountain": 3253,
      "Ġsword": 3254,
      "ĠDucky": 3255,
      "Ġlearning": 3256,
      "Ġbuilt": 3257,
      "Ġbatter": 3258,
      "keeper": 3259,
      "Ġrat": 3260,
      "Ġnotice": 3261,
      "Ġthoughtful": 3262,
      "Ġcomb": 3263,
      "Ġharder": 3264,
      "Ġpirate": 3265,
      "Ġwealthy": 3266,
      "Ġindependent": 3267,
      "dge": 3268,
      "fa": 3269,
      "ado": 3270,
      "Ġorig": 3271,
      "Ġenjoying": 3272,
      "Ġcounted": 3273,
      "Ġinvited": 3274,
      "Ġstubborn": 3275,
      "isk": 3276,
      "Ġstumbled": 3277,
      "Ġtrump": 3278,
      "Ġfier": 3279,
      "Ġzip": 3280,
      "Ġcompass": 3281,
      "Spot": 3282,
      "wards": 3283,
      "ĠBella": 3284,
      "Ġref": 3285,
      "Ġjack": 3286,
      "Ġscrat": 3287,
      "Ġfavourite": 3288,
      "Ġspilled": 3289,
      "Ġlights": 3290,
      "Ġpractice": 3291,
      "Ġtank": 3292,
      "Ġlow": 3293,
      "Ġsauce": 3294,
      "Ġfork": 3295,
      "Ġlibr": 3296,
      "ouses": 3297,
      "Ġwrit": 3298,
      "Ġescape": 3299,
      "Ġcudd": 3300,
      "Ġpump": 3301,
      "ĠSh": 3302,
      "Ġnosy": 3303,
      "Ġdesk": 3304,
      "Ġserious": 3305,
      "Ġfat": 3306,
      "Ġhalf": 3307,
      "Ġrug": 3308,
      "Ġbeak": 3309,
      "Ġrode": 3310,
      "Ġfright": 3311,
      "Ġvalu": 3312,
      "Ġnorm": 3313,
      "Ġliz": 3314,
      "Ġcompet": 3315,
      "Ġbounce": 3316,
      "Ġenvelope": 3317,
      "Ġfierce": 3318,
      "corn": 3319,
      "Ġhouses": 3320,
      "Ġdull": 3321,
      "Ġshark": 3322,
      "ĠMummy": 3323,
      "Ġshowing": 3324,
      "ĠCl": 3325,
      "Ġcircle": 3326,
      "Ġterrible": 3327,
      "Ġfresh": 3328,
      "Ġtrumpet": 3329,
      "iable": 3330,
      "Ġsuit": 3331,
      "Ġtummy": 3332,
      "Ġsir": 3333,
      "uth": 3334,
      "Ġbean": 3335,
      "Ġwhale": 3336,
      "Ġbrothers": 3337,
      "eah": 3338,
      "Ġstairs": 3339,
      "Ġresc": 3340,
      "Ġspace": 3341,
      "Ġknock": 3342,
      "Ġprep": 3343,
      "Ġkinds": 3344,
      "ĠToday": 3345,
      "Ġoriginal": 3346,
      "time": 3347,
      "Ġicy": 3348,
      "rage": 3349,
      "Ġspun": 3350,
      "Ġabove": 3351,
      "Ġboats": 3352,
      "Ġreliable": 3353,
      "Ġmarble": 3354,
      "Ġpoured": 3355,
      "Ġaunt": 3356,
      "Ġhippo": 3357,
      "Ġstamp": 3358,
      "umsy": 3359,
      "Ġseeds": 3360,
      "dom": 3361,
      "oppy": 3362,
      "Ġbump": 3363,
      "Ġshape": 3364,
      "Ġbloom": 3365,
      "Ġsniff": 3366,
      "Ġstove": 3367,
      "Ġstickers": 3368,
      "ĠOh": 3369,
      "Ġbarber": 3370,
      "Ġkicked": 3371,
      "Ġregular": 3372,
      "Ġwhisp": 3373,
      "Ġsuccessful": 3374,
      "Ġnormal": 3375,
      "Ġtor": 3376,
      "Ġwake": 3377,
      "Ġnurse": 3378,
      "ĠHere": 3379,
      "Ġsoar": 3380,
      "Ġlocked": 3381,
      "ĠPete": 3382,
      "Ġjoined": 3383,
      "Ġtelling": 3384,
      "Ġrubbed": 3385,
      "Ġcricket": 3386,
      "Ġcompetit": 3387,
      "Ġexplored": 3388,
      "Ġsne": 3389,
      "Ġsnee": 3390,
      "ĠWhenever": 3391,
      "Ġguit": 3392,
      "Ġparrot": 3393,
      "Ġsolve": 3394,
      "Ġcompassion": 3395,
      "Ġvaluable": 3396,
      "Ġgum": 3397,
      "atter": 3398,
      "alk": 3399,
      "Ġgrap": 3400,
      "ÅĵLet": 3401,
      "Ġrub": 3402,
      "Ġstraw": 3403,
      "oc": 3404,
      "Ġdough": 3405,
      "Ġearth": 3406,
      "ĠRose": 3407,
      "Ġpopcorn": 3408,
      "kn": 3409,
      "illie": 3410,
      "ict": 3411,
      "Ġexcitedly": 3412,
      "ĠFr": 3413,
      "ĠFin": 3414,
      "Ġhandle": 3415,
      "Ġstranger": 3416,
      "Ġsalad": 3417,
      "com": 3418,
      "Ġrushed": 3419,
      "Ġbees": 3420,
      "Ġplayful": 3421,
      "Ġmem": 3422,
      "Ġchose": 3423,
      "Ġenorm": 3424,
      "ipe": 3425,
      "Ġarrow": 3426,
      "Ġdreaming": 3427,
      "Ġfingers": 3428,
      "Ġenormous": 3429,
      "Ġhay": 3430,
      "illa": 3431,
      "Ġthemselves": 3432,
      "iew": 3433,
      "Ġgrand": 3434,
      "Ġways": 3435,
      "Ġquestion": 3436,
      "Ġtask": 3437,
      "Ġtooth": 3438,
      "ince": 3439,
      "Ġfan": 3440,
      "Ġthirst": 3441,
      "Ġclumsy": 3442,
      "Ġpale": 3443,
      "Ġgraceful": 3444,
      "een": 3445,
      "under": 3446,
      "uring": 3447,
      "Ġchanged": 3448,
      "Ġstops": 3449,
      "Ġhairy": 3450,
      "Ġtomato": 3451,
      "tern": 3452,
      "Ġpenny": 3453,
      "Ġthinking": 3454,
      "Ġsuggested": 3455,
      "Ġfrightened": 3456,
      "Ġlizard": 3457,
      "Ġgoose": 3458,
      "Ġsett": 3459,
      "Ġdelicate": 3460,
      "Ġsearching": 3461,
      "Ġwheat": 3462,
      "Ġgasped": 3463,
      "Ġflashlight": 3464,
      "Em": 3465,
      "While": 3466,
      "Ġflex": 3467,
      "Ġfrag": 3468,
      "anny": 3469,
      "Ġforth": 3470,
      "ĠDave": 3471,
      "Ġenc": 3472,
      "Ġcrazy": 3473,
      "Ġwarned": 3474,
      "Ġcostum": 3475,
      "Ġguitar": 3476,
      "Ġcards": 3477,
      "Ġmis": 3478,
      "Ġbirdie": 3479,
      "Ġending": 3480,
      "Ġraced": 3481,
      "Ġsurf": 3482,
      "Ġcooking": 3483,
      "Ġscreen": 3484,
      "Ow": 3485,
      "Ġadvice": 3486,
      "Ġimpress": 3487,
      "ĠNemo": 3488,
      "Ġsquare": 3489,
      "Ġmarch": 3490,
      "Ġdelighted": 3491,
      "known": 3492,
      "Ġwashed": 3493,
      "aroo": 3494,
      "Ġya": 3495,
      "Ġshone": 3496,
      "Ġscale": 3497,
      "angaroo": 3498,
      "Ġbrace": 3499,
      "Ġprint": 3500,
      "Ġmissing": 3501,
      "Ġdiscover": 3502,
      "Ġthirsty": 3503,
      "Ġmay": 3504,
      "Ġmask": 3505,
      "ĠIs": 3506,
      "Ġkangaroo": 3507,
      "Ġshells": 3508,
      "Ġview": 3509,
      "berries": 3510,
      "arsh": 3511,
      "Ġmetal": 3512,
      "Ġcomplet": 3513,
      "Ġwiped": 3514,
      "Ġdestro": 3515,
      "ef": 3516,
      "Ġbase": 3517,
      "Ġcere": 3518,
      "Ġcity": 3519,
      "ĠWhile": 3520,
      "ellig": 3521,
      "Ġintellig": 3522,
      "Ġenv": 3523,
      "Ġopens": 3524,
      "Ġguard": 3525,
      "Ġearly": 3526,
      "Ġcharming": 3527,
      "Ġflexible": 3528,
      "Ġsend": 3529,
      "Ġwaff": 3530,
      "Ġsofa": 3531,
      "Ġfinding": 3532,
      "Ġhose": 3533,
      "Ġguy": 3534,
      "Ġcounting": 3535,
      "Ġattract": 3536,
      "Ġfilm": 3537,
      "Ġmagnet": 3538,
      "Ġtoast": 3539,
      "ilty": 3540,
      "Ġgir": 3541,
      "Ġthunder": 3542,
      "Ġstage": 3543,
      "Ġtruth": 3544,
      "Ġrules": 3545,
      "Ġguilty": 3546,
      "ola": 3547,
      "Ġdesign": 3548,
      "Ġadmired": 3549,
      "Ġfragile": 3550,
      "Ġbeet": 3551,
      "Ġdriving": 3552,
      "See": 3553,
      "oby": 3554,
      "Ġcheap": 3555,
      "âĤ¬âĢ": 3556,
      "ĠNot": 3557,
      "Ġpatch": 3558,
      "Ġslides": 3559,
      "oe": 3560,
      "Ġtem": 3561,
      "arian": 3562,
      "robe": 3563,
      "Ġbrightly": 3564,
      "Ġing": 3565,
      "Ġled": 3566,
      "Ġnames": 3567,
      "Ġmoder": 3568,
      "Ġunknown": 3569,
      "Ġtravel": 3570,
      "Ġ--": 3571,
      "Ġimagined": 3572,
      "Ġcelebrate": 3573,
      "Ġpeeked": 3574,
      "ser": 3575,
      "Ġcush": 3576,
      "Ġtrash": 3577,
      "Ġsticker": 3578,
      "Ġreminded": 3579,
      "Ġcandle": 3580,
      "bled": 3581,
      "cing": 3582,
      "ience": 3583,
      "berry": 3584,
      "Ġperm": 3585,
      "Ġholds": 3586,
      "host": 3587,
      "Ġhumble": 3588,
      "Ġprize": 3589,
      "Go": 3590,
      "gu": 3591,
      "Ġnature": 3592,
      "Ġrice": 3593,
      "Ġstat": 3594,
      "ief": 3595,
      "Ġclock": 3596,
      "ĠKim": 3597,
      "Ġnuts": 3598,
      "Ġpilot": 3599,
      "cus": 3600,
      "Ġresist": 3601,
      "ices": 3602,
      "Ġfriendship": 3603,
      "Ġlab": 3604,
      "Ġcareless": 3605,
      "Ġproudly": 3606,
      "Ġnicely": 3607,
      "ĠPaul": 3608,
      "redient": 3609,
      "gging": 3610,
      "Ġgrowing": 3611,
      "Ġingredient": 3612,
      "Ġtied": 3613,
      "Ġmen": 3614,
      "Ġsleeping": 3615,
      "Ġpige": 3616,
      "Ġtwirled": 3617,
      "Ġten": 3618,
      "ĠSm": 3619,
      "!\".": 3620,
      "Ġstarts": 3621,
      "Ġcarp": 3622,
      "Ġtrap": 3623,
      "cod": 3624,
      "Ġpattern": 3625,
      "Ġattic": 3626,
      "Ġwhispered": 3627,
      "Ġintelligent": 3628,
      "ision": 3629,
      "llip": 3630,
      "Ġflour": 3631,
      "Ġbald": 3632,
      "Ġcompassionate": 3633,
      "Ġmodern": 3634,
      "gest": 3635,
      "Ġhook": 3636,
      "Ġpow": 3637,
      "Ġghost": 3638,
      "Ġshut": 3639,
      "ĠMar": 3640,
      "ecause": 3641,
      "Ġmeal": 3642,
      "Ġchasing": 3643,
      "ĠPe": 3644,
      "Ġspring": 3645,
      "Ġdolphin": 3646,
      "Ġingredients": 3647,
      "night": 3648,
      "Ġyog": 3649,
      "Ġbiggest": 3650,
      "Ġlollip": 3651,
      "Ġuncle": 3652,
      "ĠGrandpa": 3653,
      "Ġimpressive": 3654,
      "oot": 3655,
      "Ġcamp": 3656,
      "ugged": 3657,
      "Ġgolf": 3658,
      "Ġsteal": 3659,
      "oomy": 3660,
      "Ġhelm": 3661,
      "Ġordinary": 3662,
      "Ġencou": 3663,
      "Ġbracelet": 3664,
      "Ġcereal": 3665,
      "Ġsudden": 3666,
      "Ġshel": 3667,
      "Ġtowers": 3668,
      "Ġdeliver": 3669,
      "Ġhung": 3670,
      "Ġsparkled": 3671,
      "ray": 3672,
      "Ġhoop": 3673,
      "Ġfu": 3674,
      "Ġrefused": 3675,
      "Ġleop": 3676,
      "cond": 3677,
      "Ġeraser": 3678,
      "Ġtorn": 3679,
      "Ġdestroy": 3680,
      "Ġlaser": 3681,
      "Ġanx": 3682,
      "Ġsecond": 3683,
      "Ġorder": 3684,
      "Ġrubb": 3685,
      "Ġcollar": 3686,
      "comfort": 3687,
      "Ġahead": 3688,
      "Ġshocked": 3689,
      "Ġrece": 3690,
      "Ġallowed": 3691,
      "Ġolder": 3692,
      "Ġjolly": 3693,
      "Ġzipp": 3694,
      "Ġwindows": 3695,
      "Ġcrocod": 3696,
      "Ġyawn": 3697,
      "Ġbeetle": 3698,
      "Ġax": 3699,
      "Ġsink": 3700,
      "ric": 3701,
      "stri": 3702,
      "Ġshiver": 3703,
      "Ġnote": 3704,
      "iches": 3705,
      "Ġimpat": 3706,
      "Ġuncomfort": 3707,
      "Ġtrick": 3708,
      "Ġuncomfortable": 3709,
      "aby": 3710,
      "gust": 3711,
      "Ġsym": 3712,
      "ĠBuddy": 3713,
      "ĠWill": 3714,
      "Ġscatter": 3715,
      "Ġeng": 3716,
      "Ġshoe": 3717,
      "Ġphot": 3718,
      "Ġhammer": 3719,
      "ikes": 3720,
      "Ġbri": 3721,
      "Ġjumps": 3722,
      "ĠGive": 3723,
      "ĠGeorge": 3724,
      "Ġdisgust": 3725,
      "Ġbutterflies": 3726,
      "Ġspeed": 3727,
      "Ġhurry": 3728,
      "Ġimpatient": 3729,
      "Ġbet": 3730,
      "Ġbent": 3731,
      "Ġmill": 3732,
      "Ġlip": 3733,
      "ĠWho": 3734,
      "Ġjacket": 3735,
      "Ġanxious": 3736,
      "tter": 3737,
      "Ġclay": 3738,
      "ophy": 3739,
      "Ġchance": 3740,
      "Ġskip": 3741,
      "Ġcreate": 3742,
      "Ġpersist": 3743,
      "bol": 3744,
      "Ġpengu": 3745,
      "Ġpasta": 3746,
      "Ġspoke": 3747,
      "Ġcur": 3748,
      "Ġsock": 3749,
      "Ġreco": 3750,
      "Ġsorts": 3751,
      "Ġtray": 3752,
      "Ġunpack": 3753,
      "Ġmessage": 3754,
      "Ġsuper": 3755,
      "Ġattractive": 3756,
      "Ġwing": 3757,
      "ĠTr": 3758,
      "Ġstation": 3759,
      "ĠJoey": 3760,
      "ÅĵIt": 3761,
      "Ġrespectful": 3762,
      "eer": 3763,
      "Ġfive": 3764,
      "Ġdug": 3765,
      "Ġgor": 3766,
      "Ġumb": 3767,
      "ĠMike": 3768,
      "Ġreef": 3769,
      "Ġload": 3770,
      "Ġalert": 3771,
      "Ġsnuggled": 3772,
      "Ġpoint": 3773,
      "ophone": 3774,
      "ÅĵLetÃ¢": 3775,
      "Ġsymbol": 3776,
      "Ġumbre": 3777,
      "Ġmop": 3778,
      "Ġcoco": 3779,
      "ĠEllie": 3780,
      "Ġsandwiches": 3781,
      "Ġparade": 3782,
      "Ġpopular": 3783,
      "Ġcocoa": 3784,
      "ci": 3785,
      "Ġtap": 3786,
      "Ġwitch": 3787,
      "Ġpony": 3788,
      "Ġkay": 3789,
      "Ġanyway": 3790,
      "Ġtrophy": 3791,
      "Ġpretending": 3792,
      "Ġsplit": 3793,
      "ĠGod": 3794,
      "Ġaxe": 3795,
      "Ġwife": 3796,
      "ĠSandy": 3797,
      "orant": 3798,
      "ĠAlex": 3799,
      "Ġrestaur": 3800,
      "Ġreading": 3801,
      "lcano": 3802,
      "ĠBrownie": 3803,
      "Ġrestaurant": 3804,
      "cream": 3805,
      "ffe": 3806,
      "loo": 3807,
      "ceed": 3808,
      "apa": 3809,
      "uct": 3810,
      "Ġglove": 3811,
      "ÅĵWhat": 3812,
      "Ġfireman": 3813,
      "Ġharmless": 3814,
      "Ġcrocodile": 3815,
      "Ġcompl": 3816,
      "ips": 3817,
      "Ġbrighter": 3818,
      "Ġtricks": 3819,
      "Ġcupboard": 3820,
      "iskers": 3821,
      "Ġlibrary": 3822,
      "Ġcarpet": 3823,
      "Ġgorilla": 3824,
      "ffee": 3825,
      "Ġeither": 3826,
      "kelet": 3827,
      "Ġanywhere": 3828,
      "Ġcrane": 3829,
      "Ġobject": 3830,
      "strich": 3831,
      "gn": 3832,
      "noon": 3833,
      "erable": 3834,
      "Ġreind": 3835,
      "Ġseal": 3836,
      "Ġquite": 3837,
      "ÅĵThat": 3838,
      "Ġimpro": 3839,
      "Ġafternoon": 3840,
      "cycle": 3841,
      "Ġenvious": 3842,
      "ibb": 3843,
      "ney": 3844,
      "Ġsent": 3845,
      "Ġotter": 3846,
      "Ġneat": 3847,
      "Ġsadly": 3848,
      "Ġholes": 3849,
      "ĠPolly": 3850,
      "Ġtroubled": 3851,
      "Ġdistant": 3852,
      "Ġcarrying": 3853,
      "Ġmiserable": 3854,
      "Ġpigeon": 3855,
      "Ġreindeer": 3856,
      "Ġcurt": 3857,
      "Ġoat": 3858,
      "Ġitself": 3859,
      "Ġbadly": 3860,
      "Ġdeaf": 3861,
      "Ġbelt": 3862,
      "Ġbehave": 3863,
      "Ġsailor": 3864,
      "Ġpumpkin": 3865,
      "ĠSmith": 3866,
      "Ġleopard": 3867,
      "Ġdisgusting": 3868,
      "Ġcurtain": 3869,
      "hroom": 3870,
      "ube": 3871,
      "Ġhive": 3872,
      "Ġmuff": 3873,
      "Ġcooler": 3874,
      "Ġmushroom": 3875,
      "Ġmailbox": 3876,
      "Ġignorant": 3877,
      "Ġrepe": 3878,
      "Ġwishes": 3879,
      "keleton": 3880,
      "ĠToby": 3881,
      "Ġshadow": 3882,
      "Ġchecked": 3883,
      "Ġforgave": 3884,
      "Ġpulls": 3885,
      "ĠTweetie": 3886,
      "Ġenth": 3887,
      "Ġsucceed": 3888,
      "iron": 3889,
      "Ġcats": 3890,
      "Ġpup": 3891,
      "Ġraven": 3892,
      "Ġvolcano": 3893,
      "Ġdrawer": 3894,
      "Ġpapers": 3895,
      "Ġpackage": 3896,
      "Ġplaced": 3897,
      "Ġobser": 3898,
      "Ġletters": 3899,
      "Ġcartoon": 3900,
      "Ġsweater": 3901,
      "Ġstatue": 3902,
      "Yay": 3903,
      "Ġbicy": 3904,
      "erc": 3905,
      "Ġur": 3906,
      "Ġshort": 3907,
      "Ġlistening": 3908,
      "aches": 3909,
      "Ġdrop": 3910,
      "Ġgifted": 3911,
      "Ġgiggle": 3912,
      "Ġpersistent": 3913,
      "arry": 3914,
      "Ġjet": 3915,
      "Ġacorn": 3916,
      "Ġdancer": 3917,
      "Ġwheels": 3918,
      "Ġpad": 3919,
      "Ġol": 3920,
      "Ġoct": 3921,
      "opus": 3922,
      "Ġpebble": 3923,
      "Ġfootball": 3924,
      "Ġstretched": 3925,
      "Ġfearful": 3926,
      "ĠYeah": 3927,
      "Ġhunter": 3928,
      "ĠSnow": 3929,
      "Ġenthus": 3930,
      "ab": 3931,
      "ÅĵYes": 3932,
      "Ġpainter": 3933,
      "Ġstirred": 3934,
      "Ġsilver": 3935,
      "Ġoctopus": 3936,
      "Ġdust": 3937,
      "Ġthief": 3938,
      "htub": 3939,
      "Ġrose": 3940,
      "Ġcoffee": 3941,
      "Ġputting": 3942,
      "ĠcouldnÃ¢": 3943,
      "Ġjournal": 3944,
      "Ġbandage": 3945,
      "Ġhuman": 3946,
      "Ġcushion": 3947,
      "Mary": 3948,
      "Ġwire": 3949,
      "Ġhut": 3950,
      "Ġbeep": 3951,
      "Ġshine": 3952,
      "Ġspell": 3953,
      "Ġpeek": 3954,
      "Ġmaze": 3955,
      "osie": 3956,
      "Ġfurther": 3957,
      "Ġveil": 3958,
      "Ġbathtub": 3959,
      "Ġvalue": 3960,
      "ĠWhiskers": 3961,
      "Ġrecogn": 3962,
      "Little": 3963,
      "cast": 3964,
      "Ġtur": 3965,
      "Ġskeleton": 3966,
      "Ġhedge": 3967,
      "Ġmel": 3968,
      "Ġtrack": 3969,
      "Ġspinning": 3970,
      "Ġfrowned": 3971,
      "Ġkayak": 3972,
      "stairs": 3973,
      "Ġnobody": 3974,
      "Ġswitch": 3975,
      "Ġspeak": 3976,
      "affe": 3977,
      "Ġmicr": 3978,
      "ison": 3979,
      "Ġshouts": 3980,
      "Ġvisited": 3981,
      "Ġcomput": 3982,
      "ailable": 3983,
      "Ġbounced": 3984,
      "heart": 3985,
      "Ġtube": 3986,
      "Ġcase": 3987,
      "Ġgoal": 3988,
      "Ġscold": 3989,
      "Ġvi": 3990,
      "Ġbeauty": 3991,
      "ected": 3992,
      "ĠPat": 3993,
      "Ġnowhere": 3994,
      "Benny": 3995,
      "Ġcourage": 3996,
      "ophie": 3997,
      "Ġumbrella": 3998,
      "Ġmicrophone": 3999,
      "Give": 4000,
      "ocer": 4001,
      "shed": 4002,
      "Ġoy": 4003,
      "aled": 4004,
      "Ġclub": 4005,
      "Ġmech": 4006,
      "Ġhanded": 4007,
      "Ġbreat": 4008,
      "Ġrestless": 4009,
      "hinocer": 4010,
      "Ġmotorcycle": 4011,
      "Alice": 4012,
      "hinoceros": 4013,
      "cut": 4014,
      "ses": 4015,
      "edy": 4016,
      "Ġstack": 4017,
      "Ġlions": 4018,
      "Ġjud": 4019,
      "Ġvide": 4020,
      "Ġvine": 4021,
      "Ġart": 4022,
      "Ġswinging": 4023,
      "Ġsalt": 4024,
      "Ġavailable": 4025,
      "Ġgiraffe": 4026,
      "Ġengine": 4027,
      "Ġturkey": 4028,
      "Ġmechan": 4029,
      "Ġants": 4030,
      "Ġtheater": 4031,
      "Ġreward": 4032,
      "Ġjug": 4033,
      "Ġsomewhere": 4034,
      "Ġchain": 4035,
      "ucked": 4036,
      "ĠEventually": 4037,
      "Ġvest": 4038,
      "Ġtear": 4039,
      "ĠPapa": 4040,
      "Ġsandcast": 4041,
      "Ġpushes": 4042,
      "Ġcreatures": 4043,
      "year": 4044,
      "Ġtire": 4045,
      "ĠTed": 4046,
      "Ġroared": 4047,
      "Ġlaund": 4048,
      "Ġexplain": 4049,
      "Ġtrail": 4050,
      "Ġappre": 4051,
      "Ġsquash": 4052,
      "Ġcompetitive": 4053,
      "Ġbicycle": 4054,
      "Ġmechanic": 4055,
      "If": 4056,
      "Ġtoil": 4057,
      "Ġluck": 4058,
      "Ġostrich": 4059,
      "Ġrhinoceros": 4060,
      "Ġhadn": 4061,
      "Ġisn": 4062,
      "Ġhelpless": 4063,
      "urb": 4064,
      "ĠWould": 4065,
      "Ġpeach": 4066,
      "Ġtripped": 4067,
      "Ġpiano": 4068,
      "Ġavoc": 4069,
      "Ġstrip": 4070,
      "Bye": 4071,
      "ĠV": 4072,
      "Ġpair": 4073,
      "orable": 4074,
      "Ġpressed": 4075,
      "Ġneedle": 4076,
      "Ġdishes": 4077,
      "Ġtriang": 4078,
      "Ġlightning": 4079,
      "Ġfilthy": 4080,
      "Ġdecorate": 4081,
      "Ġrescue": 4082,
      "Ġlollipop": 4083,
      "Ġcomet": 4084,
      "Ġstared": 4085,
      "Ġexerc": 4086,
      "Ġener": 4087,
      "Ġtreasures": 4088,
      "Ġdisturb": 4089,
      "Ġpracticed": 4090,
      "Ġsupport": 4091,
      "Ġappreci": 4092,
      "Jenny": 4093,
      "Ġpor": 4094,
      "Ġpurse": 4095,
      "Ġstrugg": 4096,
      "Ġfrogs": 4097,
      "Ġmarried": 4098,
      "Ġshopkeeper": 4099,
      "Ġorganize": 4100,
      "Ġlaundry": 4101,
      "ges": 4102,
      "une": 4103,
      "Ġclapping": 4104,
      "Ġpress": 4105,
      "ĠEverything": 4106,
      "Ġhopes": 4107,
      "Ġsandbox": 4108,
      "Ġharsh": 4109,
      "Ġped": 4110,
      "ĠSee": 4111,
      "Ġbackpack": 4112,
      "Ġthread": 4113,
      "Ġpaid": 4114,
      "Ġbarks": 4115,
      "Ġhelmet": 4116,
      "inking": 4117,
      "any": 4118,
      "Ġshield": 4119,
      "seum": 4120,
      "used": 4121,
      "sely": 4122,
      "Ġadorable": 4123,
      "Ġgloomy": 4124,
      "ĠGood": 4125,
      "Ġpushing": 4126,
      "Ġcows": 4127,
      "Ġsneak": 4128,
      "gs": 4129,
      "Ġsle": 4130,
      "Ġsize": 4131,
      "Ġbin": 4132,
      "render": 4133,
      "Ġmild": 4134,
      "Ġonion": 4135,
      "Ġshaking": 4136,
      "Ġnoteb": 4137,
      "Ġfinds": 4138,
      "Ġsunset": 4139,
      "Ġcups": 4140,
      "Ġchickens": 4141,
      "Ġtoilet": 4142,
      "Ġnotebook": 4143,
      "lud": 4144,
      "ron": 4145,
      "Ġdess": 4146,
      "imney": 4147,
      "ooped": 4148,
      "Ġstarting": 4149,
      "Ġchimney": 4150,
      "Ġsoftly": 4151,
      "Ġmonkeys": 4152,
      "Ġexper": 4153,
      "az": 4154,
      "hood": 4155,
      "Ġhall": 4156,
      "Ġinsist": 4157,
      "Ġshade": 4158,
      "Ġboots": 4159,
      "Ġslipp": 4160,
      "Ġairport": 4161,
      "Ġpolish": 4162,
      "Ġstuffed": 4163,
      "Ġmuseum": 4164,
      "Ġzipper": 4165,
      "aked": 4166,
      "iest": 4167,
      "Ġpun": 4168,
      "ense": 4169,
      "ĠJerry": 4170,
      "Ġleash": 4171,
      "astic": 4172,
      "Ġclimbing": 4173,
      "Ġdisag": 4174,
      "Ġrolling": 4175,
      "ĠGrace": 4176,
      "Ġsteps": 4177,
      "Ġriding": 4178,
      "Ġpine": 4179,
      "Ġgym": 4180,
      "ckey": 4181,
      "Ġweep": 4182,
      "ills": 4183,
      "Ġnews": 4184,
      "Ġhockey": 4185,
      "Ġframe": 4186,
      "Ġtrains": 4187,
      "ĠRosie": 4188,
      "Ġappl": 4189,
      "Ġcounter": 4190,
      "Ġcountry": 4191,
      "ait": 4192,
      "aff": 4193,
      "ubby": 4194,
      "Ġiron": 4195,
      "Ġlang": 4196,
      "arnt": 4197,
      "Ġsheet": 4198,
      "Ġlie": 4199,
      "Ġcane": 4200,
      "Ġlearnt": 4201,
      "Ġsort": 4202,
      "Ġclosely": 4203,
      "Ġcryst": 4204,
      "Ġsweetheart": 4205,
      "Ġcrow": 4206,
      "Ġinclud": 4207,
      "Ġsurrender": 4208,
      "Ġbarking": 4209,
      "Ġdessert": 4210,
      "Ġlangu": 4211,
      "gen": 4212,
      "Ġmath": 4213,
      "Ġribb": 4214,
      "Ġstom": 4215,
      "ents": 4216,
      "Ġscoot": 4217,
      "ĠLola": 4218,
      "Ġchubby": 4219,
      "Ġmarry": 4220,
      "Ġmarched": 4221,
      "ggy": 4222,
      "Ġbasketball": 4223,
      "Ġdiary": 4224,
      "Ġpaws": 4225,
      "ĠSnowy": 4226,
      "ccol": 4227,
      "Ġnail": 4228,
      "Ġink": 4229,
      "amb": 4230,
      "ĠBill": 4231,
      "Ġhappier": 4232,
      "Ġjokes": 4233,
      "Ġgiven": 4234,
      "Ġbreaks": 4235,
      "phone": 4236,
      "Ġgrabs": 4237,
      "Ġcardboard": 4238,
      "Ġtelephone": 4239,
      "Ġunlock": 4240,
      "Ġshelter": 4241,
      "ccoli": 4242,
      "Ġbikes": 4243,
      "Ġpole": 4244,
      "Ġcolours": 4245,
      "Ġdrawings": 4246,
      "Ġadmire": 4247,
      "Ġshrimp": 4248,
      "happy": 4249,
      "Grandma": 4250,
      "Ġcomputer": 4251,
      "Ġporch": 4252,
      "come": 4253,
      "Ġspir": 4254,
      "Ġknot": 4255,
      "Ġended": 4256,
      "Ġshouldn": 4257,
      "lb": 4258,
      "inarian": 4259,
      "Ġlid": 4260,
      "Ġmug": 4261,
      "Ġfeelings": 4262,
      "eterinarian": 4263,
      "Ġinvit": 4264,
      "Ġstretch": 4265,
      "Ġcomplete": 4266,
      "Ġviol": 4267,
      "te": 4268,
      "Ġbur": 4269,
      "Ġrag": 4270,
      "Ġfort": 4271,
      "anda": 4272,
      "Ġbubble": 4273,
      "Ġunhappy": 4274,
      "Ġleaned": 4275,
      "Ġbaseball": 4276,
      "Ġveterinarian": 4277,
      "Ġbulb": 4278,
      "Ġraft": 4279,
      "Ġthanks": 4280,
      "Ġelev": 4281,
      "Ġimagine": 4282,
      "Ġcooked": 4283,
      "Ġsince": 4284,
      "Ġyach": 4285,
      "Ġbroccoli": 4286,
      "achel": 4287,
      "âĤ¬âĢľ": 4288,
      "right": 4289,
      "Ġcell": 4290,
      "Ġdive": 4291,
      "Ġlives": 4292,
      "ssible": 4293,
      "rod": 4294,
      "Ġfirework": 4295,
      "Ġdrops": 4296,
      "Ġbarrel": 4297,
      "Ġpotato": 4298,
      "Ġscrew": 4299,
      "Ġtriangle": 4300,
      "ween": 4301,
      "Ġwool": 4302,
      "ummer": 4303,
      "Ġworth": 4304,
      "play": 4305,
      "Ġcheek": 4306,
      "Ġhoping": 4307,
      "Ġfalling": 4308,
      "Ġapologized": 4309,
      "Ġspirit": 4310,
      "men": 4311,
      "zzy": 4312,
      "Ġreve": 4313,
      "icer": 4314,
      "Ġswamp": 4315,
      "Ġintrod": 4316,
      "ĠRo": 4317,
      "Ġdiscus": 4318,
      "Ġdear": 4319,
      "Ġneighbour": 4320,
      "Ġtuna": 4321,
      "Everyone": 4322,
      "ebra": 4323,
      "Ġmodest": 4324,
      "Ġbetween": 4325,
      "Ġmelon": 4326,
      "Ġelevator": 4327,
      "Ġyacht": 4328,
      "par": 4329,
      "iling": 4330,
      "Ġsoil": 4331,
      "ĠBunny": 4332,
      "Ġsepar": 4333,
      "Ġmeas": 4334,
      "inky": 4335,
      "Ġzebra": 4336,
      "Ġblowing": 4337,
      "mm": 4338,
      "Ġsaus": 4339,
      "igator": 4340,
      "Ġplayer": 4341,
      "Ġmeat": 4342,
      "Ġswung": 4343,
      "Ġquar": 4344,
      "Ġwelcomed": 4345,
      "Ġjeep": 4346,
      "Ġoyster": 4347,
      "yer": 4348,
      "Ġble": 4349,
      "Ġinf": 4350,
      "stic": 4351,
      "Ġshakes": 4352,
      "Ġcrib": 4353,
      "Ġcabinet": 4354,
      "Ġgrapes": 4355,
      "Ha": 4356,
      "aring": 4357,
      "Ġstadi": 4358,
      "Ġsoc": 4359,
      "iastic": 4360,
      "ĠCo": 4361,
      "ĠdonÃ¢": 4362,
      "Ġevening": 4363,
      "Ġwallet": 4364,
      "Ġthrows": 4365,
      "Ġenthusiastic": 4366,
      "Ġenergy": 4367,
      "Ġstadium": 4368,
      "Because": 4369,
      "Ġtub": 4370,
      "Ġmama": 4371,
      "Ġpage": 4372,
      "ĠTony": 4373,
      "enry": 4374,
      "Ġminute": 4375,
      "Ġburned": 4376,
      "Ġstraight": 4377,
      "Ġsoldier": 4378,
      "Ġcrystal": 4379,
      "Ġsoccer": 4380,
      "sit": 4381,
      "Ġkitty": 4382,
      "Ġraining": 4383,
      "Ġnapkin": 4384,
      "Ġzoomed": 4385,
      "Ġjudge": 4386,
      "Ġslippery": 4387,
      "ler": 4388,
      "sing": 4389,
      "Ġradi": 4390,
      "opter": 4391,
      "aud": 4392,
      "Ġgreedy": 4393,
      "act": 4394,
      "azz": 4395,
      "rs": 4396,
      "Ġhar": 4397,
      "Ġoak": 4398,
      "imi": 4399,
      "stead": 4400,
      "Ġweather": 4401,
      "icopter": 4402,
      "Ġopera": 4403,
      "ĠNext": 4404,
      "Ġdisplay": 4405,
      "Ġimagination": 4406,
      "Ġrepair": 4407,
      "Ġhelicopter": 4408,
      "Ġlawyer": 4409,
      "Ġphoto": 4410,
      "bul": 4411,
      "eath": 4412,
      "gth": 4413,
      "lass": 4414,
      "Ġcaul": 4415,
      "Ġrad": 4416,
      "Ġmyself": 4417,
      "Ġvac": 4418,
      "Ġbuzz": 4419,
      "Ġhaircut": 4420,
      "Ġward": 4421,
      "Ġglowing": 4422,
      "Ġfisher": 4423,
      "Ġviolin": 4424,
      "Ġcaulif": 4425,
      "ues": 4426,
      "una": 4427,
      "unately": 4428,
      "hero": 4429,
      "ĠMillie": 4430,
      "Ġchirp": 4431,
      "Ġoffer": 4432,
      "Ġsmells": 4433,
      "Ġvend": 4434,
      "Ġpirates": 4435,
      "arlie": 4436,
      "Ġaccepted": 4437,
      "Ġwaffle": 4438,
      "tain": 4439,
      "ĠOr": 4440,
      "Ġmule": 4441,
      "Ġsuperhero": 4442,
      "Ġwardrobe": 4443,
      "Next": 4444,
      "tress": 4445,
      "Ġtherm": 4446,
      "Ġpipe": 4447,
      "Ġthumb": 4448,
      "Ġboot": 4449,
      "Ġmattress": 4450,
      "Ġattach": 4451,
      "Ġpastry": 4452,
      "Ġbelongs": 4453,
      "Ġpassport": 4454,
      "Emma": 4455,
      "Ġcostume": 4456,
      "Ġpowder": 4457,
      "Ġslept": 4458,
      "Ġcauliflower": 4459,
      "Ġshot": 4460,
      "urch": 4461,
      "Ġalligator": 4462,
      "Ġscore": 4463,
      "Ġflies": 4464,
      "Ġvet": 4465,
      "Ġsung": 4466,
      "Ġmixer": 4467,
      "Ġpresents": 4468,
      "Ġserve": 4469,
      "Ġlively": 4470,
      "Ġscooter": 4471,
      "osed": 4472,
      "son": 4473,
      "Ġoil": 4474,
      "Ġherb": 4475,
      "ĠHelp": 4476,
      "Ġplastic": 4477,
      "Ġrever": 4478,
      "ĠAb": 4479,
      "Ġalarm": 4480,
      "Ġseeing": 4481,
      "ometer": 4482,
      "anges": 4483,
      "ĠAndy": 4484,
      "Ġuniver": 4485,
      "rength": 4486,
      "ĠKate": 4487,
      "Ġpoints": 4488,
      "Ġprov": 4489,
      "Ġwinter": 4490,
      "Ġthrowing": 4491,
      "Ġfisherman": 4492,
      "lier": 4493,
      "Ġstrength": 4494,
      "chair": 4495,
      "Ġknown": 4496,
      "Ġalive": 4497,
      "ĠDid": 4498,
      "Ġshovel": 4499,
      "Ġpuddles": 4500,
      "Ġapart": 4501,
      "Ġignored": 4502,
      "Ġbananas": 4503,
      "Ġgolden": 4504,
      "Ġradio": 4505,
      "Ġlime": 4506,
      "Ġwaste": 4507,
      "ories": 4508,
      "Ġrot": 4509,
      "Ġstud": 4510,
      "isten": 4511,
      "Ġrod": 4512,
      "Ġshouting": 4513,
      "Ġapplaud": 4514,
      "Ġlanguage": 4515,
      "Ġvendor": 4516,
      "Ġaut": 4517,
      "Ġsummer": 4518,
      "Ġlend": 4519,
      "place": 4520,
      "Ġquit": 4521,
      "Ġgrill": 4522,
      "Ġsailing": 4523,
      "ctory": 4524,
      "Ġperfectly": 4525,
      "Ġchairs": 4526,
      "Ġmistakes": 4527,
      "Daddy": 4528,
      "Ġfishing": 4529,
      "Ġscolded": 4530,
      "lasses": 4531,
      "Ġthermometer": 4532,
      "Ġsunglasses": 4533,
      "ib": 4534,
      "Ġsimp": 4535,
      "Ġgro": 4536,
      "ĠBear": 4537,
      "Ġhappens": 4538,
      "Ġfactory": 4539,
      "Ġmagaz": 4540,
      "Ġarmchair": 4541,
      "Ġattention": 4542,
      "Ġinvest": 4543,
      "Inside": 4544,
      "Ġhanging": 4545,
      "hic": 4546,
      "nam": 4547,
      "omm": 4548,
      "ĠHave": 4549,
      "Ġequ": 4550,
      "Ġprevent": 4551,
      "reeze": 4552,
      "Ġkingdom": 4553,
      "Ġlemonade": 4554,
      "ĠUn": 4555,
      "Ġwriting": 4556,
      "Ġvacation": 4557,
      "low": 4558,
      "Ġwags": 4559,
      "ĠdidnÃ¢": 4560,
      "izes": 4561,
      "Ġsticky": 4562,
      "Ġvehic": 4563,
      "Ġearlier": 4564,
      "Ġcelebrated": 4565,
      "ĠTrue": 4566,
      "Ġexercise": 4567,
      "Ġstro": 4568,
      "Ġcube": 4569,
      "Ġambul": 4570,
      "ĠInstead": 4571,
      "Ġclassroom": 4572,
      "Together": 4573,
      "Ġsniffed": 4574,
      "Ġavocado": 4575,
      "Ġleak": 4576,
      "Ġmakeup": 4577,
      "Ġpoem": 4578,
      "Ġdoors": 4579,
      "Ġappro": 4580,
      "Ġfollows": 4581,
      "Ġparent": 4582,
      "Ġfields": 4583,
      "Ġceiling": 4584,
      "Ġmeeting": 4585,
      "Ġregret": 4586,
      "Ġprepare": 4587,
      "Ġharb": 4588,
      "Daisy": 4589,
      "Ġtut": 4590,
      "Ġsuff": 4591,
      "Ġfle": 4592,
      "Ġfurn": 4593,
      "Ġmention": 4594,
      "ĠSophie": 4595,
      "Ġloop": 4596,
      "Ġflapped": 4597,
      "ups": 4598,
      "Ġsurround": 4599,
      "Ġpinch": 4600,
      "Ġshooting": 4601,
      "Today": 4602,
      "Ġargue": 4603,
      "Ġambulance": 4604,
      "oral": 4605,
      "onna": 4606,
      "Ġrequ": 4607,
      "Ġnovel": 4608,
      "Ġagre": 4609,
      "ĠLee": 4610,
      "Ġornam": 4611,
      "Ġfog": 4612,
      "Ġconf": 4613,
      "Ġheads": 4614,
      "Ġpetals": 4615,
      "Ġkisses": 4616,
      "Ġexamine": 4617,
      "Did": 4618,
      "Ġtax": 4619,
      "Ġdem": 4620,
      "Ġpur": 4621,
      "Ġyield": 4622,
      "ĠMimi": 4623,
      "Ġchurch": 4624,
      "Ġstruc": 4625,
      "Ġshoulder": 4626,
      "Ġforgotten": 4627,
      "Ġfallen": 4628,
      "Ġmemories": 4629,
      "ĠMaria": 4630,
      "Ġquarrel": 4631,
      "Ġstructure": 4632,
      "was": 4633,
      "iture": 4634,
      "bbie": 4635,
      "Ġmoves": 4636,
      "ction": 4637,
      "ÅĵYou": 4638,
      "Ġfiref": 4639,
      "avid": 4640,
      "Ġmusician": 4641,
      "Ġquietly": 4642,
      "Ġrubber": 4643,
      "Ġautom": 4644,
      "Ġinvestig": 4645,
      "Ġharbor": 4646,
      "Ġfurniture": 4647,
      "vision": 4648,
      "Ġfile": 4649,
      "Ġitch": 4650,
      "Ġhelper": 4651,
      "Ġknob": 4652,
      "Ġpoke": 4653,
      "Ġlotion": 4654,
      "Ġfireplace": 4655,
      "Ġbaking": 4656,
      "Ġcreated": 4657,
      "Ġpuzzles": 4658,
      "Ġmedal": 4659,
      "Ġdishwas": 4660,
      "Ġimprove": 4661,
      "Ġvideo": 4662,
      "Ġdishwasher": 4663,
      "ives": 4664,
      "Ġfought": 4665,
      "Ġcared": 4666,
      "omes": 4667,
      "Ġhurting": 4668,
      "Ġtrave": 4669,
      "Ġbelow": 4670,
      "ĠKat": 4671,
      "Ġsub": 4672,
      "Ġfuel": 4673,
      "Ġsandcastle": 4674,
      "Ġgrocer": 4675,
      "Ġwine": 4676,
      "Ġwigg": 4677,
      "ising": 4678,
      "Ġgonna": 4679,
      "ĠitÃ¢": 4680,
      "Ġspear": 4681,
      "ĠJames": 4682,
      "Ġcaring": 4683,
      "rosc": 4684,
      "Ġpoked": 4685,
      "Ġdressed": 4686,
      "Ġeagerly": 4687,
      "Ġtrusted": 4688,
      "Ġmicrosc": 4689,
      "Ġcomplain": 4690,
      "eve": 4691,
      "gie": 4692,
      "Ġsings": 4693,
      "Ġcree": 4694,
      "ĠTw": 4695,
      "iday": 4696,
      "Your": 4697,
      "Ġspade": 4698,
      "ason": 4699,
      "Ġchalk": 4700,
      "Ġbears": 4701,
      "Ġunif": 4702,
      "medi": 4703,
      "fortunately": 4704,
      "Ġeasily": 4705,
      "Ġsupply": 4706,
      "Ġbalanc": 4707,
      "Ġwipe": 4708,
      "Ġflutter": 4709,
      "Ġcrossed": 4710,
      "Ġcherries": 4711,
      "Ġtaxi": 4712,
      "Ġmicroscope": 4713,
      "Ġcreek": 4714,
      "Is": 4715,
      "Ġ...": 4716,
      "Ġbother": 4717,
      "Ġpit": 4718,
      "Ġplates": 4719,
      "Ġdoggy": 4720,
      "Ġfollowing": 4721,
      "ission": 4722,
      "orses": 4723,
      "Ġcrawling": 4724,
      "Ġpenguin": 4725,
      "ÅĵItÃ¢": 4726,
      "Ġrequest": 4727,
      "Ġautomob": 4728,
      "Ġuniform": 4729,
      "case": 4730,
      "loe": 4731,
      "ĠBaby": 4732,
      "Ġagree": 4733,
      "angers": 4734,
      "Ġskirt": 4735,
      "Ġgrin": 4736,
      "Ġcrash": 4737,
      "Ġsigns": 4738,
      "Ġsprink": 4739,
      "Ġsupposed": 4740,
      "iction": 4741,
      "Ġtutor": 4742,
      "mediately": 4743,
      "Ch": 4744,
      "nce": 4745,
      "Ġhorses": 4746,
      "ero": 4747,
      "Ġpal": 4748,
      "Ġpanda": 4749,
      "asis": 4750,
      "Ġprop": 4751,
      "Ġflame": 4752,
      "Ġrooms": 4753,
      "aces": 4754,
      "ĠRachel": 4755,
      "Ġsquirrels": 4756,
      "ipping": 4757,
      "Ġfreez": 4758,
      "Ġignore": 4759,
      "ĠAnnie": 4760,
      "Ġtelevision": 4761,
      "ommend": 4762,
      "Ġreaches": 4763,
      "Ġblood": 4764,
      "Ġvroom": 4765,
      "Ġquack": 4766,
      "Ġcalls": 4767,
      "Ġdelay": 4768,
      "ĠRemy": 4769,
      "Ġworms": 4770,
      "Ġsplashing": 4771,
      "Ġsqueeze": 4772,
      "Eventually": 4773,
      "liday": 4774,
      "Ġsizes": 4775,
      "ito": 4776,
      "Ġcord": 4777,
      "Ġpra": 4778,
      "amber": 4779,
      "Ġweigh": 4780,
      "Ġholiday": 4781,
      "Ġlaught": 4782,
      "Ġrabbits": 4783,
      "Ġdisappear": 4784,
      "Ġmailman": 4785,
      "Ġapron": 4786,
      "Ġrecommend": 4787,
      "Ġwhisper": 4788,
      "Ġweeks": 4789,
      "Ġyawned": 4790,
      "Ġolive": 4791,
      "ictionary": 4792,
      "'.": 4793,
      "Ġpalm": 4794,
      "elcome": 4795,
      "Ġsprayed": 4796,
      "Ġrelaxed": 4797,
      "Ġappreciate": 4798,
      "Ġbleed": 4799,
      "Ġautomobile": 4800,
      "Ġlaughter": 4801,
      "Ġsigh": 4802,
      "Ġwaving": 4803,
      "Ġdire": 4804,
      "Ġdictionary": 4805,
      "Ġoasis": 4806,
      "Ġsaving": 4807,
      "ety": 4808,
      "Ġplays": 4809,
      "ĠMandy": 4810,
      "ĠFor": 4811,
      "Ġtwink": 4812,
      "Ġletting": 4813,
      "Ġdresses": 4814,
      "Ġgrowled": 4815,
      "Ġchoice": 4816,
      "Ġwhistling": 4817,
      "Ġmuffin": 4818,
      "Ġmagazine": 4819,
      "Ġcable": 4820,
      "ĠIÃ¢": 4821,
      "Ġstable": 4822,
      "Ġclaw": 4823,
      "ĠEl": 4824,
      "Ġpopped": 4825,
      "Ġraise": 4826,
      "Ġbuckle": 4827,
      "Ġbathe": 4828,
      "Ġsafety": 4829,
      "Ġwandered": 4830,
      "Ġdemand": 4831,
      "Ġinvestigate": 4832,
      "ring": 4833,
      "Ġbreeze": 4834,
      "enty": 4835,
      "fume": 4836,
      "ĠLilly": 4837,
      "Ġskills": 4838,
      "Ġfastest": 4839,
      "Thanks": 4840,
      "Ġhearts": 4841,
      "ival": 4842,
      "Ġsqueezed": 4843,
      "Ġbattery": 4844,
      "Ġrefre": 4845,
      "Ġtornado": 4846,
      "xc": 4847,
      "chie": 4848,
      "ĠMat": 4849,
      "Ġcopper": 4850,
      "aped": 4851,
      "Ġpear": 4852,
      "Ġquiz": 4853,
      "Ġsurprises": 4854,
      "Ġperfume": 4855,
      "Ġtaller": 4856,
      "Ġinstr": 4857,
      "Ġfolder": 4858,
      "Ġbeans": 4859,
      "Ġsettled": 4860,
      "Will": 4861,
      "Ġtucked": 4862,
      "ĠBet": 4863,
      "Ġgirls": 4864,
      "Ġshower": 4865,
      "ipment": 4866,
      "Ġcastles": 4867,
      "Ġgifts": 4868,
      "Ġblackboard": 4869,
      "Ġberry": 4870,
      "Ġribbon": 4871,
      "Ġseparate": 4872,
      "Ann": 4873,
      "Ġlumber": 4874,
      "allow": 4875,
      "ases": 4876,
      "Ġburied": 4877,
      "Sammy": 4878,
      "Ġringing": 4879,
      "Ġshrugged": 4880,
      "Ġticket": 4881,
      "omeday": 4882,
      "Ġscratch": 4883,
      "Ġdestroyed": 4884,
      "Ġequipment": 4885,
      "cc": 4886,
      "ived": 4887,
      "ple": 4888,
      "vet": 4889,
      "Ġfest": 4890,
      "Ġsocks": 4891,
      "ĠDavid": 4892,
      "Ġbury": 4893,
      "Ġraz": 4894,
      "Ġbookcase": 4895,
      "Ġfloated": 4896,
      "Ġplanet": 4897,
      "Ġelephants": 4898,
      "Ġmystery": 4899,
      "Ġshrink": 4900,
      "Ġburning": 4901,
      "Ġtore": 4902,
      "Ġhate": 4903,
      "Ġstaff": 4904,
      "Ġlicks": 4905,
      "Ġsparkling": 4906,
      "Ġentered": 4907,
      "Ġadmir": 4908,
      "Ġspending": 4909,
      "Ġcherry": 4910,
      "Ġrazor": 4911,
      "house": 4912,
      "nies": 4913,
      "Ġalright": 4914,
      "Ġworse": 4915,
      "Ġkneel": 4916,
      "Ġoranges": 4917,
      "Ġskull": 4918,
      "Ġeaten": 4919,
      "Ġjogging": 4920,
      "Ġminer": 4921,
      "ĠChr": 4922,
      "Ġcircus": 4923,
      "Ġstrawberries": 4924,
      "ging": 4925,
      "Ġsix": 4926,
      "inked": 4927,
      "oming": 4928,
      "ĠMa": 4929,
      "Ġmeowed": 4930,
      "Ġfauc": 4931,
      "ĠDan": 4932,
      "Ġchess": 4933,
      "Ġunite": 4934,
      "Ġamazement": 4935,
      "Ġheaded": 4936,
      "Ġblankets": 4937,
      "ĠBuzz": 4938,
      "Ġcuddled": 4939,
      "ĠClara": 4940,
      "Ġbricks": 4941,
      "Fl": 4942,
      "Peter": 4943,
      "Ġtong": 4944,
      "Ġdaisy": 4945,
      "Ġpages": 4946,
      "ĠMiss": 4947,
      "Ġanch": 4948,
      "raged": 4949,
      "icing": 4950,
      "Ġchamber": 4951,
      "Ġdrain": 4952,
      "Ġkeeping": 4953,
      "Ġideas": 4954,
      "Ġblueberries": 4955,
      "Ġhills": 4956,
      "Ġairpl": 4957,
      "uggage": 4958,
      "Ġrespons": 4959,
      "Ġcollected": 4960,
      "Ġcandles": 4961,
      "Ġscattered": 4962,
      "Ġreverse": 4963,
      "Ġvehicle": 4964,
      "Lisa": 4965,
      "Ġig": 4966,
      "Ġsomeday": 4967,
      "Ġluggage": 4968,
      "ĠSu": 4969,
      "Ġrake": 4970,
      "Ġrise": 4971,
      "Ġweap": 4972,
      "alley": 4973,
      "emember": 4974,
      "ĠDanny": 4975,
      "quito": 4976,
      "Ġsnap": 4977,
      "Ġhotel": 4978,
      "Ġspoons": 4979,
      "Ġincre": 4980,
      "Ġbumped": 4981,
      "Ġyoga": 4982,
      "Ġrepeat": 4983,
      "Ġpalace": 4984,
      "Ġfaucet": 4985,
      "Ġigloo": 4986,
      "Ġtug": 4987,
      "Ġtonight": 4988,
      "Ġdried": 4989,
      "Ġwashing": 4990,
      "sters": 4991,
      "These": 4992,
      "Ġjazz": 4993,
      "ĠLuna": 4994,
      "Ġfloat": 4995,
      "Ġsetting": 4996,
      "Ġspots": 4997,
      "Ġunderstanding": 4998,
      "Ġactually": 4999,
      "Ġcoats": 5000,
      "Ġjellyfish": 5001,
      "Ġmelted": 5002,
      "Ġsneeze": 5003,
      "Ġbreathe": 5004,
      "Ġanchor": 5005,
      "Wait": 5006,
      "Ġbeg": 5007,
      "Ġres": 5008,
      "Ġsport": 5009,
      "asc": 5010,
      "Ġremove": 5011,
      "Ġfloating": 5012,
      "Ġplanes": 5013,
      "Ġmint": 5014,
      "Ġenter": 5015,
      "Ġpeanuts": 5016,
      "Ġflea": 5017,
      "Ġ.": 5018,
      "Ġtoes": 5019,
      "ĠTina": 5020,
      "seek": 5021,
      "Ġglo": 5022,
      "Ġmissile": 5023,
      "ĠCharlie": 5024,
      "Ġobserve": 5025,
      "Ġpraised": 5026,
      "Ġfestival": 5027,
      "squito": 5028,
      "Ġhomes": 5029,
      "Ġgust": 5030,
      "lend": 5031,
      "elery": 5032,
      "Ġlick": 5033,
      "Ġmanage": 5034,
      "aggie": 5035,
      "Ġblinked": 5036,
      "Ġmosquito": 5037,
      "Ġours": 5038,
      "Ġdeeper": 5039,
      "Ġeasier": 5040,
      "Ġbouncing": 5041,
      "Ġstrawberry": 5042,
      "Ġtemple": 5043,
      "Ġpermission": 5044,
      "Ouch": 5045,
      "Qu": 5046,
      "Ġbank": 5047,
      "Ġmall": 5048,
      "Ġport": 5049,
      "atch": 5050,
      "Ġeff": 5051,
      "Ġbeamed": 5052,
      "rol": 5053,
      "Ġpoison": 5054,
      "Ġtrade": 5055,
      "Ġblueberry": 5056,
      "Ġdrinking": 5057,
      "Ġpanic": 5058,
      "Ġcaptain": 5059,
      "ĠPeople": 5060,
      "Ġinfant": 5061,
      "Ġapproached": 5062,
      "eed": 5063,
      "ities": 5064,
      "Ġhesit": 5065,
      "Ġga": 5066,
      "ann": 5067,
      "Ġinse": 5068,
      "Ġspit": 5069,
      "Ġscooped": 5070,
      "Ġago": 5071,
      "Ġwatches": 5072,
      "Ġsnapped": 5073,
      "Ġimmediately": 5074,
      "Ġworks": 5075,
      "Ġwarmth": 5076,
      "Ġanswers": 5077,
      "Ġcalend": 5078,
      "Ġjewelry": 5079,
      "Ġstruggling": 5080,
      "Ġclaws": 5081,
      "Ġcalendar": 5082,
      "rise": 5083,
      "ari": 5084,
      "ĠBun": 5085,
      "ĠIts": 5086,
      "Ġpossible": 5087,
      "Ġoper": 5088,
      "Ġclimbs": 5089,
      "Ġappear": 5090,
      "Ġbites": 5091,
      "Ġparts": 5092,
      "Ġemer": 5093,
      "Ġwarning": 5094,
      "Ġdestination": 5095,
      "Ġexperience": 5096,
      "Ġsausage": 5097,
      "Ġradish": 5098,
      "Ġgloves": 5099,
      "Ġevent": 5100,
      "Ġstitch": 5101,
      "ores": 5102,
      "Ġlawn": 5103,
      "uckily": 5104,
      "Ġslice": 5105,
      "Ġtracks": 5106,
      "Ġcompany": 5107,
      "Ġsparkle": 5108,
      "irpy": 5109,
      "ĠFreddy": 5110,
      "Ġsettle": 5111,
      "ĠCoco": 5112,
      "Ġachie": 5113,
      "Ġfasc": 5114,
      "Ġlect": 5115,
      "Ġnation": 5116,
      "ĠMay": 5117,
      "Ġweren": 5118,
      "indy": 5119,
      "Ġskipping": 5120,
      "ĠCat": 5121,
      "Ġbeef": 5122,
      "Ġyogurt": 5123,
      "Ġurge": 5124,
      "Ġinsisted": 5125,
      "Ġsimple": 5126,
      "Ġlecture": 5127,
      "Sh": 5128,
      "use": 5129,
      "igail": 5130,
      "Ġshed": 5131,
      "Ġsore": 5132,
      "Ġvalley": 5133,
      "Ġsunrise": 5134,
      "ĠJoy": 5135,
      "Ġsits": 5136,
      "Ġhits": 5137,
      "Ġguys": 5138,
      "Ġstomach": 5139,
      "Ġfreezer": 5140,
      "mare": 5141,
      "Ġdare": 5142,
      "ishing": 5143,
      "Ġhers": 5144,
      "Ġyucky": 5145,
      "Ġbegged": 5146,
      "ĠJess": 5147,
      "Ġcliff": 5148,
      "âĤ¬.": 5149,
      "Ġpride": 5150,
      "Ġslip": 5151,
      "Ġdifference": 5152,
      "Ġprayed": 5153,
      "Ġoats": 5154,
      "Ġchirping": 5155,
      "Tweet": 5156,
      "lvet": 5157,
      "mother": 5158,
      "Ġcelery": 5159,
      "Ġlamb": 5160,
      "Ġnone": 5161,
      "Ġrush": 5162,
      "ĠMo": 5163,
      "Ġranch": 5164,
      "Ġcob": 5165,
      "Ġtease": 5166,
      "ĠKing": 5167,
      "Ġmoments": 5168,
      "Ġvelvet": 5169,
      "Ġmustache": 5170,
      "Ġinvite": 5171,
      "Ġpatiently": 5172,
      "Ġteaching": 5173,
      "Ġapologize": 5174,
      "ĠFrank": 5175,
      "Ġreceive": 5176,
      "Ġtongue": 5177,
      "tory": 5178,
      "Ġaer": 5179,
      "Ġsip": 5180,
      "Ġmitten": 5181,
      "irped": 5182,
      "utty": 5183,
      "Ġhistory": 5184,
      "Ġasht": 5185,
      "Ġjail": 5186,
      "umble": 5187,
      "ĠLater": 5188,
      "ĠLike": 5189,
      "Ġlaid": 5190,
      "Ġchirped": 5191,
      "Ġnightmare": 5192,
      "Ġmatches": 5193,
      "Ġcollecting": 5194,
      "ĠChloe": 5195,
      "Ġsolved": 5196,
      "Ġrevealed": 5197,
      "Ġfascin": 5198,
      "Ġashtray": 5199,
      "Yuck": 5200,
      "Ġfuck": 5201,
      "Ġfash": 5202,
      "opl": 5203,
      "Ġchores": 5204,
      "Ġcomm": 5205,
      "Ġstrangers": 5206,
      "Ġremain": 5207,
      "Ġpaused": 5208,
      "Ġplanted": 5209,
      "ĠBefore": 5210,
      "Ġmarbles": 5211,
      "Ġencouraged": 5212,
      "Ġsubway": 5213,
      "Ġaeropl": 5214,
      "Ġfut": 5215,
      "ĠHenry": 5216,
      "ĠFo": 5217,
      "Ġbravely": 5218,
      "Ġjogged": 5219,
      "Ġreplace": 5220,
      "Ġcontrol": 5221,
      "spap": 5222,
      "Ġpetted": 5223,
      "Ġwarn": 5224,
      "ÅĵThatÃ¢": 5225,
      "actly": 5226,
      "Ġairplane": 5227,
      "ien": 5228,
      "Ġtide": 5229,
      "Ġfed": 5230,
      "Ġlung": 5231,
      "Ġgear": 5232,
      "Ġitem": 5233,
      "Ġsty": 5234,
      "antly": 5235,
      "ĠJul": 5236,
      "Ġcoal": 5237,
      "Ġnewspap": 5238,
      "Ġwherever": 5239,
      "Ġpulling": 5240,
      "Ġlands": 5241,
      "Ġbelieved": 5242,
      "Ġdecorations": 5243,
      "Ġtwisted": 5244,
      "Ġwrites": 5245,
      "Ġpatterns": 5246,
      "Ġpunish": 5247,
      "Ġfuture": 5248,
      "With": 5249,
      "web": 5250,
      "Ġbes": 5251,
      "Ġeight": 5252,
      "ĠGre": 5253,
      "Ġcones": 5254,
      "Ġturning": 5255,
      "Ġthrilled": 5256,
      "osity": 5257,
      "Ġmouths": 5258,
      "Ġpastel": 5259,
      "Ġordered": 5260,
      "Ġreceived": 5261,
      "Ġrecognized": 5262,
      "Ġinsect": 5263,
      "Ġcobweb": 5264,
      "All": 5265,
      "iers": 5266,
      "Ġcakes": 5267,
      "ora": 5268,
      "Ġupstairs": 5269,
      "Ġkill": 5270,
      "Ġsew": 5271,
      "Ġprune": 5272,
      "ĠRu": 5273,
      "Ġdeal": 5274,
      "Johnny": 5275,
      "Ġmodel": 5276,
      "Ġfirefight": 5277,
      "Ġweapon": 5278,
      "\",": 5279,
      "bers": 5280,
      "oved": 5281,
      "Ġlily": 5282,
      "riage": 5283,
      "ĠRob": 5284,
      "ĠOkay": 5285,
      "Ġpaints": 5286,
      "Ġattached": 5287,
      "Ġproblems": 5288,
      "Ġsuffer": 5289,
      "cles": 5290,
      "Ġdigg": 5291,
      "Ġrow": 5292,
      "Ġjunk": 5293,
      "ĠEach": 5294,
      "Ġsunlight": 5295,
      "Ġwatered": 5296,
      "Ġremained": 5297,
      "Ġcutting": 5298,
      "ĠSteve": 5299,
      "Ġeagle": 5300,
      "Ġhurric": 5301,
      "Ġselling": 5302,
      "ĠChrist": 5303,
      "nie": 5304,
      "Ġwaist": 5305,
      "Ġheat": 5306,
      "Ġdam": 5307,
      "Ġpanc": 5308,
      "Ġobe": 5309,
      "Ġweight": 5310,
      "Ġbrid": 5311,
      "Ġblouse": 5312,
      "Ġpoppy": 5313,
      "Ġbrain": 5314,
      "Ġglowed": 5315,
      "Ġlets": 5316,
      "Ġbookshe": 5317,
      "ĠChirpy": 5318,
      "Before": 5319,
      "Ġexamined": 5320,
      "Ġvanished": 5321,
      "Ġsoldiers": 5322,
      "Ġtomatoes": 5323,
      "Ġprovide": 5324,
      "Ġgrinned": 5325,
      "Ġbleeding": 5326,
      "Ġdigging": 5327,
      "Jen": 5328,
      "allen": 5329,
      "ĠMilly": 5330,
      "!\",": 5331,
      "anta": 5332,
      "embers": 5333,
      "ĠFro": 5334,
      "Ġfamil": 5335,
      "Ġremembers": 5336,
      "Ġtalent": 5337,
      "Ġrained": 5338,
      "Ġrested": 5339,
      "Ġwhistled": 5340,
      "Ġvillag": 5341,
      "Ġdisagreed": 5342,
      "len": 5343,
      "Ġduring": 5344,
      "ides": 5345,
      "ĠMe": 5346,
      "ĠPenny": 5347,
      "Ġcrunch": 5348,
      "Ġrestore": 5349,
      "Ġsteam": 5350,
      "Ġdrinks": 5351,
      "Ġmenu": 5352,
      "Ġeffort": 5353,
      "Ġfashion": 5354,
      "Ġhurricane": 5355,
      "Not": 5356,
      "dam": 5357,
      "Ġhanger": 5358,
      "Ġmuddy": 5359,
      "Ġshamp": 5360,
      "Ġtremb": 5361,
      "ĠListen": 5362,
      "Ġchallen": 5363,
      "bbled": 5364,
      "Ġracing": 5365,
      "Ġmission": 5366,
      "ĠSomething": 5367,
      "ĠSomeone": 5368,
      "Ġchewed": 5369,
      "ĠBubbles": 5370,
      "Ġcostumes": 5371,
      "ĠKatie": 5372,
      "Ġbeside": 5373,
      "Ġobey": 5374,
      "Ġshampoo": 5375,
      "Mandy": 5376,
      "Ġtoe": 5377,
      "Ġmass": 5378,
      "Ġmister": 5379,
      "ĠSure": 5380,
      "Ġhardly": 5381,
      "ÅĵNo": 5382,
      "Ġprice": 5383,
      "Ġbuzzing": 5384,
      "Ġrefreshed": 5385,
      "Fluffy": 5386,
      "Ġaeroplane": 5387,
      "Ġbookshelf": 5388,
      "Would": 5389,
      "Welcome": 5390,
      "Ġtip": 5391,
      "Ġbeat": 5392,
      "adly": 5393,
      "Ġweighed": 5394,
      "Ġspaces": 5395,
      "Ġflap": 5396,
      "Ġgotten": 5397,
      "xture": 5398,
      "ĠNutty": 5399,
      "Ġcontain": 5400,
      "Ġcontinue": 5401,
      "Ġfreeze": 5402,
      "Ġzooming": 5403,
      "Ġclearing": 5404,
      "Ġpillows": 5405,
      "Ġtickets": 5406,
      "Really": 5407,
      "Ġcartoons": 5408,
      "Ġdiscuss": 5409,
      "ĠMatt": 5410,
      "Ġadmiring": 5411,
      "Ġbridges": 5412,
      "Ġvillagers": 5413,
      "Somet": 5414,
      "fied": 5415,
      "kins": 5416,
      "riger": 5417,
      "Ġbang": 5418,
      "Ġdied": 5419,
      "Ġgain": 5420,
      "ĠThese": 5421,
      "Ġsoared": 5422,
      "Ġwhip": 5423,
      "Ġexactly": 5424,
      "Ġdownstairs": 5425,
      "ĠEveryday": 5426,
      "aster": 5427,
      "Ġvoices": 5428,
      "Ġcrashed": 5429,
      "Ġsteel": 5430,
      "Ġsitu": 5431,
      "Ġbringing": 5432,
      "Ġsecrets": 5433,
      "Ġguns": 5434,
      "Ġseats": 5435,
      "Ġrefriger": 5436,
      "looking": 5437,
      "Ġrefrigerator": 5438,
      "Ġpist": 5439,
      "ĠHarry": 5440,
      "Ġlic": 5441,
      "Ġscur": 5442,
      "Ġbrus": 5443,
      "Ġflav": 5444,
      "Ġdecision": 5445,
      "Ġperched": 5446,
      "Ġhated": 5447,
      "Ġvisiting": 5448,
      "laire": 5449,
      "Ġearthqu": 5450,
      "ĠAbigail": 5451,
      "Ġsurrounded": 5452,
      "Ġagreement": 5453,
      "Ġpistol": 5454,
      "Mmm": 5455,
      "Moral": 5456,
      "Or": 5457,
      "fy": 5458,
      "walk": 5459,
      "Ġ1": 5460,
      "Ġbun": 5461,
      "Ġbill": 5462,
      "ĠTiny": 5463,
      "ĠAn": 5464,
      "Ġprec": 5465,
      "izing": 5466,
      "Ġkindly": 5467,
      "Ġplanned": 5468,
      "Ġcomforted": 5469,
      "Ġmachines": 5470,
      "Ġdinosaurs": 5471,
      "Ġjewels": 5472,
      "Ġbrick": 5473,
      "Ġnewspaper": 5474,
      "Ġpancakes": 5475,
      "xy": 5476,
      "Ġwagging": 5477,
      "terday": 5478,
      "ĠAm": 5479,
      "Ġpears": 5480,
      "ĠGet": 5481,
      "Ġsparkles": 5482,
      "Ġpastels": 5483,
      "Ġdiscovery": 5484,
      "Ġserved": 5485,
      "Ġpinched": 5486,
      "Ġhurried": 5487,
      "Ġawe": 5488,
      "Ġtwigs": 5489,
      "Ġsneezed": 5490,
      "Ġoperation": 5491,
      "!'": 5492,
      "Jake": 5493,
      "cage": 5494,
      "do": 5495,
      "Ġtugged": 5496,
      "Ġlines": 5497,
      "Ġrust": 5498,
      "aded": 5499,
      "Ġbirdcage": 5500,
      "Ġrang": 5501,
      "Ġcomfy": 5502,
      "Ġrealize": 5503,
      "avi": 5504,
      "Ġsuitc": 5505,
      "Ġmarching": 5506,
      "Ġpets": 5507,
      "ĠStop": 5508,
      "Ġpracticing": 5509,
      "Ġfolded": 5510,
      "Ġcuddle": 5511,
      "Ġgrape": 5512,
      "Ġmemory": 5513,
      "Ġinvitation": 5514,
      "Ġlicense": 5515,
      "oed": 5516,
      "ody": 5517,
      "hest": 5518,
      "Ġbak": 5519,
      "Ġnavy": 5520,
      "Ġroot": 5521,
      "Ġbrings": 5522,
      "Ġstruggled": 5523,
      "Ġchef": 5524,
      "ĠJosh": 5525,
      "Ġtrapped": 5526,
      "Ġfiremen": 5527,
      "ulu": 5528,
      "ĠFloppy": 5529,
      "Ġsliding": 5530,
      "Ġneighborhood": 5531,
      "Ġpermit": 5532,
      "Ġresponsible": 5533,
      "xygen": 5534,
      "ding": 5535,
      "rin": 5536,
      "sity": 5537,
      "Ġpitch": 5538,
      "ays": 5539,
      "Ġwanting": 5540,
      "Ġarea": 5541,
      "Ġmeow": 5542,
      "Ġraised": 5543,
      "ÅĵLook": 5544,
      "Ġwaits": 5545,
      "Ġzipped": 5546,
      "ĠOl": 5547,
      "Ġgrowl": 5548,
      "Ġexpect": 5549,
      "ÅĵIÃ¢": 5550,
      "Ġfigured": 5551,
      "Ġprepared": 5552,
      "Ġwaffles": 5553,
      "Ġlips": 5554,
      "Ġsucceeded": 5555,
      "Ġmeasured": 5556,
      "Ġgrocery": 5557,
      "Ġbegin": 5558,
      "zag": 5559,
      "Ġbones": 5560,
      "Ġchat": 5561,
      "Ġripped": 5562,
      "Ġmonsters": 5563,
      "Ġfixing": 5564,
      "Ġcomple": 5565,
      "Ġsidewalk": 5566,
      "Ġentire": 5567,
      "Ġargued": 5568,
      "Ġlabel": 5569,
      "Ġintroduc": 5570,
      "Ġmineral": 5571,
      "Ġearthquake": 5572,
      "Ro": 5573,
      "uing": 5574,
      "Ġsting": 5575,
      "ĠBig": 5576,
      "Ġgrey": 5577,
      "Ġzig": 5578,
      "Ġsatis": 5579,
      "Ġsnowball": 5580,
      "Ġbuildings": 5581,
      "Ġbottles": 5582,
      "Ġaccidents": 5583,
      "Ġsafari": 5584,
      "tiest": 5585,
      "Ġrides": 5586,
      "Ready": 5587,
      "Ġpadd": 5588,
      "Ġuniversity": 5589,
      "xcuse": 5590,
      "Ġbunnies": 5591,
      "Mark": 5592,
      "Ġoxygen": 5593,
      "amie": 5594,
      "Ġsomebody": 5595,
      "Ġwhatever": 5596,
      "Ġeveryday": 5597,
      "Ġbecoming": 5598,
      "Ġanytime": 5599,
      "Ġprettiest": 5600,
      "Ġpupp": 5601,
      "Ġbeds": 5602,
      "Ġtastes": 5603,
      "ults": 5604,
      "Ġpenguins": 5605,
      "Ġpedal": 5606,
      "Ġstudied": 5607,
      "Ġmentioned": 5608,
      "Ġinstruct": 5609,
      "Ġfascinated": 5610,
      "Ġspaceship": 5611,
      ".'": 5612,
      "bies": 5613,
      "ĠĠ": 5614,
      "ĠSund": 5615,
      "ĠBir": 5616,
      "Ġprun": 5617,
      "Ġpeel": 5618,
      "ĠSpike": 5619,
      "thm": 5620,
      "Ġsteak": 5621,
      "Ġescaped": 5622,
      "Ġpiles": 5623,
      "Ġneighbourhood": 5624,
      "Ġproperly": 5625,
      "Ġcaut": 5626,
      "ĠSunny": 5627,
      "ica": 5628,
      "Ġscoop": 5629,
      "Ġimage": 5630,
      "Ġbye": 5631,
      "Ġwonders": 5632,
      "Ġsisters": 5633,
      "iggy": 5634,
      "Ġbathrobe": 5635,
      "Ġactiv": 5636,
      "Ġwisdom": 5637,
      "Ġguessed": 5638,
      "Emily": 5639,
      "Ġcurled": 5640,
      "Ġacorns": 5641,
      "Ġdisturbed": 5642,
      "Ġemergen": 5643,
      "Ġcrunchy": 5644,
      "Sometimes": 5645,
      "Ġprecious": 5646,
      "ew": 5647,
      "ex": 5648,
      "uzz": 5649,
      "Ġbare": 5650,
      "Ġrhy": 5651,
      "Ġann": 5652,
      "Ġbrushed": 5653,
      "Ġflood": 5654,
      "ĠCar": 5655,
      "Ġkeeps": 5656,
      "Ġbabies": 5657,
      "Ġpigs": 5658,
      "Ġmarkers": 5659,
      "Ġgrandmother": 5660,
      "ĠNothing": 5661,
      "Ġfireworks": 5662,
      "Ġintroduce": 5663,
      "Kitty": 5664,
      "Susie": 5665,
      "band": 5666,
      "ĠHop": 5667,
      "ĠHoppy": 5668,
      "Ġseas": 5669,
      "ĠJes": 5670,
      "usband": 5671,
      "Ġdecides": 5672,
      "Ġsorting": 5673,
      "Ġoverjoy": 5674,
      "Ġofficer": 5675,
      "Ġcatching": 5676,
      "Ġdrift": 5677,
      "Ġfrost": 5678,
      "Ġshopping": 5679,
      "Ġaccom": 5680,
      "Ġparked": 5681,
      "Rex": 5682,
      "Ġscratched": 5683,
      "Ġrecognize": 5684,
      "Ġmeasuring": 5685,
      "Happy": 5686,
      "Ġpurred": 5687,
      "Ġstyle": 5688,
      "Ġoverjoyed": 5689,
      "Ok": 5690,
      "neath": 5691,
      "Ġmittens": 5692,
      "ĠTell": 5693,
      "imy": 5694,
      "Ġhappiest": 5695,
      "Ġpeered": 5696,
      "Ġzero": 5697,
      "Ġbeha": 5698,
      "Ġdraws": 5699,
      "ĠLetÃ¢": 5700,
      "Ġwooden": 5701,
      "Ġmarriage": 5702,
      "Ġtune": 5703,
      "Ġlemons": 5704,
      "ĠSharing": 5705,
      "Ġpupil": 5706,
      "Ġornament": 5707,
      "Ġinstructions": 5708,
      "ĠOnce": 5709,
      "Ġfet": 5710,
      "ided": 5711,
      "vers": 5712,
      "ppers": 5713,
      "ĠMad": 5714,
      "ĠAny": 5715,
      "ĠLucky": 5716,
      "Ġunderground": 5717,
      "Ġbowed": 5718,
      "Ġreminder": 5719,
      "ably": 5720,
      "Ġmassage": 5721,
      "ĠSunday": 5722,
      "iar": 5723,
      "pe": 5724,
      "Ġhusband": 5725,
      "Ġcal": 5726,
      "ĠSanta": 5727,
      "ĠHa": 5728,
      "ĠBeth": 5729,
      "ĠLiz": 5730,
      "Ġstruck": 5731,
      "ĠCindy": 5732,
      "Ġbroom": 5733,
      "Ġwondering": 5734,
      "thank": 5735,
      "Ġprinted": 5736,
      "Ġmuscles": 5737,
      "Ġlandsc": 5738,
      "Ġbeneath": 5739,
      "Ġexpected": 5740,
      "Ġneighbors": 5741,
      "Ġcollection": 5742,
      "Ġunlocked": 5743,
      "Ġshadows": 5744,
      "Ġsprinkles": 5745,
      "Ġsituation": 5746,
      "Ġprunes": 5747,
      "Le": 5748,
      "ury": 5749,
      "Ġwre": 5750,
      "Ġbeard": 5751,
      "Ġaren": 5752,
      "Ġloose": 5753,
      "Ġranger": 5754,
      "ÅĵDon": 5755,
      "ffic": 5756,
      "Ġmagnets": 5757,
      "Ġaccompl": 5758,
      "First": 5759,
      "ux": 5760,
      "Ġda": 5761,
      "Ġpies": 5762,
      "Ġknelt": 5763,
      "Ġchases": 5764,
      "Ġvent": 5765,
      "Ġvowed": 5766,
      "ĠFirst": 5767,
      "Ġteasing": 5768,
      "Ġtraffic": 5769,
      "Ġcrumb": 5770,
      "Ġsteep": 5771,
      "Ġscreams": 5772,
      "Ġclaps": 5773,
      "Ġmuffins": 5774,
      "Ġurged": 5775,
      "Ġtravell": 5776,
      "fit": 5777,
      "go": 5778,
      "zing": 5779,
      "Ġcous": 5780,
      "Ġcash": 5781,
      "omas": 5782,
      "Ġgained": 5783,
      "ena": 5784,
      "Ġnicer": 5785,
      "Ġbend": 5786,
      "ĠMaggie": 5787,
      "Ġslimy": 5788,
      "Ġopin": 5789,
      "Ġeats": 5790,
      "Ġrail": 5791,
      "Ġsweets": 5792,
      "ĠHowever": 5793,
      "Ġstirring": 5794,
      "Ġroaring": 5795,
      "Ġdecorated": 5796,
      "ĠAnne": 5797,
      "ĠZoe": 5798,
      "Ġincluded": 5799,
      "Ġitems": 5800,
      "Ġemergency": 5801,
      "Ġrhythm": 5802,
      "Ġlandscape": 5803,
      "Remember": 5804,
      "ears": 5805,
      "vin": 5806,
      "hell": 5807,
      "Ġti": 5808,
      "itely": 5809,
      "ira": 5810,
      "Ġonwards": 5811,
      "Ġrele": 5812,
      "ĠPinky": 5813,
      "Ġdrag": 5814,
      "Joey": 5815,
      "Ġtouching": 5816,
      "Ġswims": 5817,
      "Ġguest": 5818,
      "ĠKe": 5819,
      "Ġpaintings": 5820,
      "Ġbouncy": 5821,
      "Goodbye": 5822,
      "Ġhonk": 5823,
      "Ġleader": 5824,
      "Ġcompletely": 5825,
      "Ġpowers": 5826,
      "Ġbillboard": 5827,
      "Ġcompleted": 5828,
      "Ġintroduced": 5829,
      "Ġzigzag": 5830,
      "Ġbarely": 5831,
      "Ġfrosting": 5832,
      "George": 5833,
      "James": 5834,
      "gers": 5835,
      "pected": 5836,
      "ta": 5837,
      "zie": 5838,
      "Ġx": 5839,
      "ution": 5840,
      "ĠBy": 5841,
      "Ġlied": 5842,
      "Ġleather": 5843,
      "Ġclick": 5844,
      "ĠLulu": 5845,
      "ÅĵWe": 5846,
      "Ġourselves": 5847,
      "Ġyelling": 5848,
      "Ġforgi": 5849,
      "Ġladyb": 5850,
      "Ġstaring": 5851,
      "Ġkeys": 5852,
      "Ġroads": 5853,
      "Ġprotected": 5854,
      "Ġbloomed": 5855,
      "Ġsoaring": 5856,
      "Ġrubbing": 5857,
      "Ġdisagree": 5858,
      "ĠUnfortunately": 5859,
      "Ġdemanded": 5860,
      "Ġsuitcase": 5861,
      "Dave": 5862,
      "Teddy": 5863,
      "jam": 5864,
      "iders": 5865,
      "lee": 5866,
      "Ġinch": 5867,
      "inda": 5868,
      "ÅĵThank": 5869,
      "Ġkeeper": 5870,
      "Ġunex": 5871,
      "Ġruin": 5872,
      "Ġrainbows": 5873,
      "Ġpassing": 5874,
      "Ġstrike": 5875,
      "Ġstripes": 5876,
      "Ġscurried": 5877,
      "Ġunexpected": 5878,
      "hins": 5879,
      "nes": 5880,
      "uly": 5881,
      "Ġcent": 5882,
      "Ġcape": 5883,
      "ans": 5884,
      "Ġhaven": 5885,
      "Ġweb": 5886,
      "Ġloving": 5887,
      "Ġvict": 5888,
      "Ġsorted": 5889,
      "Ġhowever": 5890,
      "izard": 5891,
      "Ġbrand": 5892,
      "ĠPip": 5893,
      "Ġcub": 5894,
      "Ġtractor": 5895,
      "Ġsinger": 5896,
      "ĠJenna": 5897,
      "Ġdoctors": 5898,
      "Ġmountains": 5899,
      "Ġdolphins": 5900,
      "Ġcrackers": 5901,
      "Ġdiscovering": 5902,
      "âĤ¬âĢĿ": 5903,
      "Ġpaddle": 5904,
      "abel": 5905,
      "Ġsighs": 5906,
      "Ġbrushes": 5907,
      "Bella": 5908,
      "mble": 5909,
      "rance": 5910,
      "zen": 5911,
      "Ġsi": 5912,
      "Ġsides": 5913,
      "Ġlux": 5914,
      "ĠHey": 5915,
      "Ġsoak": 5916,
      "ĠJe": 5917,
      "Ġscra": 5918,
      "Ġsadness": 5919,
      "Ġflat": 5920,
      "Ġunderneath": 5921,
      "Ġshoulders": 5922,
      "Ġcreation": 5923,
      "Ġbreaking": 5924,
      "Ġcuriosity": 5925,
      "Ġseesaw": 5926,
      "though": 5927,
      "Ġkicking": 5928,
      "Ġmovies": 5929,
      "Ġstudying": 5930,
      "Ġuniverse": 5931,
      "lowly": 5932,
      "Ġbalanced": 5933,
      "Ġtrembling": 5934,
      "Ġchallenge": 5935,
      "jamas": 5936,
      "Mr": 5937,
      "you": 5938,
      "zart": 5939,
      "Ġwound": 5940,
      "Ġwest": 5941,
      "edding": 5942,
      "ĠTues": 5943,
      "rick": 5944,
      "ĠBird": 5945,
      "Ġshit": 5946,
      "Ġoutdo": 5947,
      "asp": 5948,
      "ashed": 5949,
      "Ġexit": 5950,
      "agull": 5951,
      "bbing": 5952,
      "Ġneedles": 5953,
      "Ġbudge": 5954,
      "Ġcrept": 5955,
      "Ġsingle": 5956,
      "Ġrolls": 5957,
      "Ġmixing": 5958,
      "Ġscru": 5959,
      "Ġtasks": 5960,
      "Ġcurtains": 5961,
      "Ġolives": 5962,
      "Ġregretted": 5963,
      "ĠMozart": 5964,
      "ĠJulie": 5965,
      "ĠRuby": 5966,
      "ĠTuesday": 5967,
      "Ah": 5968,
      "Luckily": 5969,
      "ales": 5970,
      "ial": 5971,
      "jest": 5972,
      "Ġmice": 5973,
      "arter": 5974,
      "Ġseagull": 5975,
      "Ġtheirs": 5976,
      "Ġspike": 5977,
      "Ġtremble": 5978,
      "Ġpearl": 5979,
      "Ġslapped": 5980,
      "ĠPo": 5981,
      "Ġstole": 5982,
      "ĠDolly": 5983,
      "Ġpartic": 5984,
      "Ġwinning": 5985,
      "Ġinterested": 5986,
      "ĠAlways": 5987,
      "Ġavo": 5988,
      "Ġflags": 5989,
      "Ġstamps": 5990,
      "Ġrepeated": 5991,
      "Ġstruggle": 5992,
      "Ġapplauded": 5993,
      "Ġconfident": 5994,
      "Mike": 5995,
      "ednes": 5996,
      "ĠTilly": 5997,
      "ishes": 5998,
      "Ġthro": 5999,
      "Ġseven": 6000,
      "Ġboom": 6001,
      "ĠAdam": 6002,
      "Ġoutfit": 6003,
      "Ġspill": 6004,
      "anted": 6005,
      "Ġpoking": 6006,
      "aky": 6007,
      "Ġsnakes": 6008,
      "ĠPipp": 6009,
      "Ġdragged": 6010,
      "Ġbedtime": 6011,
      "iously": 6012,
      "Ġowned": 6013,
      "Ġsweeties": 6014,
      "Ġmonth": 6015,
      "Ġprinter": 6016,
      "ĠOut": 6017,
      "Ġpajamas": 6018,
      "Bobo": 6019,
      "Ġpouring": 6020,
      "Ġtwirling": 6021,
      "Ġsilence": 6022,
      "uctantly": 6023,
      "Ġweeping": 6024,
      "Ġbalancing": 6025,
      "ednesday": 6026,
      "</": 6027,
      "Ella": 6028,
      "Pete": 6029,
      "Un": 6030,
      "ĠQu": 6031,
      "hee": 6032,
      "Ġwizard": 6033,
      "Ġfart": 6034,
      "ĠItÃ¢": 6035,
      "Ġleast": 6036,
      "ĠWednesday": 6037,
      "Ġworries": 6038,
      "Ġfault": 6039,
      "ĠLizzy": 6040,
      "Ġhugging": 6041,
      "usted": 6042,
      "Ġgreet": 6043,
      "Ġsnugg": 6044,
      "Ġstolen": 6045,
      "Ġwaiter": 6046,
      "ĠDoggy": 6047,
      "ĠOw": 6048,
      "Ġplanets": 6049,
      "Ġwinner": 6050,
      "Ġpockets": 6051,
      "Ġdeser": 6052,
      "Ġpleasure": 6053,
      "Ġstretching": 6054,
      "Ġhorns": 6055,
      "Ġseems": 6056,
      "Ġrubs": 6057,
      "Ġstealing": 6058,
      "Ġshivered": 6059,
      "Ġloaded": 6060,
      "Ġornaments": 6061,
      "Ġdirection": 6062,
      "ĠBetsy": 6063,
      "annah": 6064,
      "Ġachieve": 6065,
      "Ġfucking": 6066,
      "Ġthroat": 6067,
      "Yum": 6068,
      "Ġ<": 6069,
      "Ġsense": 6070,
      "Ġboo": 6071,
      "Ġdent": 6072,
      "Ġdared": 6073,
      "irm": 6074,
      "Ġstare": 6075,
      "rious": 6076,
      "Ġkilled": 6077,
      "Ġprob": 6078,
      "Ġgoodnight": 6079,
      "ĠCarl": 6080,
      "ĠPut": 6081,
      "Ġrocked": 6082,
      "Ġthreat": 6083,
      "ĠThanks": 6084,
      "Ġsolution": 6085,
      "Ġpencils": 6086,
      "Ġtemper": 6087,
      "Ġfuzzy": 6088,
      "Ġcurly": 6089,
      "Ġpunished": 6090,
      "Ġburrow": 6091,
      "ĠFollow": 6092,
      "ÅĵDonÃ¢": 6093,
      "Ġreleased": 6094,
      "Ġparticular": 6095,
      "Fred": 6096,
      "Mar": 6097,
      "abbit": 6098,
      "cl": 6099,
      "Ġaff": 6100,
      "Ġwink": 6101,
      "Ġwedding": 6102,
      "Ġhi": 6103,
      "Ġmater": 6104,
      "ayla": 6105,
      "ana": 6106,
      "ley": 6107,
      "Ġrisk": 6108,
      "Ġass": 6109,
      "Ġrelease": 6110,
      "Ġtruly": 6111,
      "ĠClaire": 6112,
      "Ġteasp": 6113,
      "ĠletÃ¢": 6114,
      "ÅĵHello": 6115,
      "Ġcontest": 6116,
      "Afterwards": 6117,
      "Ġfrozen": 6118,
      "Ġmatched": 6119,
      "Ġmatching": 6120,
      "Ġrelief": 6121,
      "Ġentrance": 6122,
      "Ġgathering": 6123,
      "Ġcompetition": 6124,
      "Ġpotatoes": 6125,
      "ĠTwo": 6126,
      "ĠSuzy": 6127,
      "Ġincrease": 6128,
      "Ġoutdoors": 6129,
      "Ġprobably": 6130,
      "Ġteaspoon": 6131,
      "Mittens": 6132,
      "rops": 6133,
      "Ġcause": 6134,
      "Ġripe": 6135,
      "ĠBecause": 6136,
      "Ġspiders": 6137,
      "Ġexha": 6138,
      "Ġroots": 6139,
      "ĠLinda": 6140,
      "ĠFriend": 6141,
      "Ġraind": 6142,
      "Ġwritten": 6143,
      "Ġexplorers": 6144,
      "ĠRight": 6145,
      "Ġbusiness": 6146,
      "Ġpolishing": 6147,
      "Ġproject": 6148,
      "Ġmarker": 6149,
      "Ġbumps": 6150,
      "Ġcamping": 6151,
      "Ġencourag": 6152,
      "Ġencourage": 6153,
      "Ġdusty": 6154,
      "Ġcrowd": 6155,
      "Ġsatisfied": 6156,
      "Bobby": 6157,
      "rr": 6158,
      "shing": 6159,
      "Ġsy": 6160,
      "Ġbunch": 6161,
      "Ġfara": 6162,
      "Ġcor": 6163,
      "ern": 6164,
      "ĠTake": 6165,
      "ĠSorry": 6166,
      "Ġplenty": 6167,
      "Ġsobbed": 6168,
      "Ġshock": 6169,
      "alph": 6170,
      "ĠDr": 6171,
      "Ġeverybody": 6172,
      "Ġpeppers": 6173,
      "Ġslap": 6174,
      "ĠPoppy": 6175,
      "Ġstaying": 6176,
      "ÅĵCan": 6177,
      "Ġconc": 6178,
      "Ġopening": 6179,
      "Ġruler": 6180,
      "Ġbaked": 6181,
      "ĠOllie": 6182,
      "Ġreluctantly": 6183,
      "Ġreaching": 6184,
      "Ġscreaming": 6185,
      "Ġacted": 6186,
      "Ġprayer": 6187,
      "undred": 6188,
      "Ġsights": 6189,
      "Grandpa": 6190,
      "Ġlibrarian": 6191,
      "Ġsneaked": 6192,
      "Ġshivering": 6193,
      "Ġphotos": 6194,
      "Ġraindrops": 6195,
      "Ġfaraway": 6196,
      "Paul": 6197,
      "eke": 6198,
      "Ġty": 6199,
      "Ġfreed": 6200,
      "Ġdep": 6201,
      "Ġpiggy": 6202,
      "arling": 6203,
      "ĠSadly": 6204,
      "endy": 6205,
      "ĠMany": 6206,
      "Ġsmarter": 6207,
      "Ġallow": 6208,
      "ĠWatch": 6209,
      "Ġblink": 6210,
      "Ġstrings": 6211,
      "Ġdreamt": 6212,
      "Ġteaches": 6213,
      "Ġdesert": 6214,
      "ĠLeave": 6215,
      "Ġblows": 6216,
      "Ġchewing": 6217,
      "Ġrecorded": 6218,
      "Ġsurface": 6219,
      "ĠPatrick": 6220,
      "Ġinclude": 6221,
      "ĠBetty": 6222,
      "ĠGreen": 6223,
      "Ġfirefighters": 6224,
      "ĠHappy": 6225,
      "Ġwreck": 6226,
      "Ġcousin": 6227,
      "Ġdragons": 6228,
      "Ġexhausted": 6229,
      "bric": 6230,
      "ik": 6231,
      "udy": 6232,
      "ĠĠĊ": 6233,
      "Ġtim": 6234,
      "ites": 6235,
      "Ġhell": 6236,
      "ĠSlowly": 6237,
      "llen": 6238,
      "ĠBoth": 6239,
      "Ġreason": 6240,
      "ĠWater": 6241,
      "Ġfact": 6242,
      "Ġfabric": 6243,
      "Ġswooped": 6244,
      "ĠElly": 6245,
      "Ġknowled": 6246,
      "Ġsnat": 6247,
      "Ġremoved": 6248,
      "ĠThomas": 6249,
      "itches": 6250,
      "Ġrestored": 6251,
      "Ġcreating": 6252,
      "Ġhealed": 6253,
      "Ġhighest": 6254,
      "ertain": 6255,
      "Andy": 6256,
      "Ġsafer": 6257,
      "Ġcelebration": 6258,
      "ophia": 6259,
      "Ġcovers": 6260,
      "Ġawake": 6261,
      "Ġreveal": 6262,
      "Ġgazed": 6263,
      "Ġcrumbs": 6264,
      "Ġsiren": 6265,
      "Ġluxury": 6266,
      "Ġknowledge": 6267,
      "Fr": 6268,
      "Henry": 6269,
      "Lola": 6270,
      "Mrs": 6271,
      "lay": 6272,
      "ps": 6273,
      "va": 6274,
      "Ġheav": 6275,
      "Ġrumble": 6276,
      "Ġcatches": 6277,
      "angled": 6278,
      "ÅĵWhy": 6279,
      "Ġforehead": 6280,
      "Ġuses": 6281,
      "Ġusually": 6282,
      "oline": 6283,
      "Ġcaused": 6284,
      "Ġmisses": 6285,
      "Ġrockets": 6286,
      "Ġnetwork": 6287,
      "Ġtickle": 6288,
      "Ġmelting": 6289,
      "Ġactivities": 6290,
      "Ġopinion": 6291,
      "Ġavoid": 6292,
      "Ġtemperature": 6293,
      "Yeah": 6294,
      "cope": 6295,
      "ossible": 6296,
      "Ġbumpy": 6297,
      "Ġdie": 6298,
      "Ġpout": 6299,
      "Ġliqu": 6300,
      "asm": 6301,
      "ĠJune": 6302,
      "ĠJamie": 6303,
      "aren": 6304,
      "Ġflames": 6305,
      "Ġchuck": 6306,
      "Ġchips": 6307,
      "ĠEarth": 6308,
      "Ġknees": 6309,
      "Ġfocus": 6310,
      "ÅĵOh": 6311,
      "ĠGr": 6312,
      "acob": 6313,
      "Ġfoods": 6314,
      "Ġdeli": 6315,
      "Ġcracked": 6316,
      "Ġarrive": 6317,
      "Ġpatience": 6318,
      "Ġorganizing": 6319,
      "However": 6320,
      "Ġcopy": 6321,
      "Ġobserved": 6322,
      "Ġinviting": 6323,
      "Ġitchy": 6324,
      "Ġkneeled": 6325,
      "Ġfetch": 6326,
      "Ġladybug": 6327,
      "Ġvictory": 6328,
      "Ġliquid": 6329,
      "die": 6330,
      "dies": 6331,
      "Ġheel": 6332,
      "Ġdet": 6333,
      "Ġdarling": 6334,
      "isies": 6335,
      "Ġsoaked": 6336,
      "ĠBye": 6337,
      "Ġlosing": 6338,
      "opsy": 6339,
      "icky": 6340,
      "ousand": 6341,
      "ĠEx": 6342,
      "Ġpeaches": 6343,
      "aura": 6344,
      "Ġtwenty": 6345,
      "Ġbravery": 6346,
      "Ġimpossible": 6347,
      "Ġdef": 6348,
      "Ġyells": 6349,
      "Ġdrives": 6350,
      "ĠOf": 6351,
      "Ġyesterday": 6352,
      "ude": 6353,
      "ĠwasnÃ¢": 6354,
      "Ġcupc": 6355,
      "Ġpastries": 6356,
      "Ġgiggling": 6357,
      "Ġtrips": 6358,
      "Ġcoloured": 6359,
      "Ġspraying": 6360,
      "Ġcandies": 6361,
      "Ġknights": 6362,
      "Ġglasses": 6363,
      "Ġwandering": 6364,
      "Ġtempt": 6365,
      "Ġimproved": 6366,
      "Ġdirect": 6367,
      "Annie": 6368,
      "Ġdaisies": 6369,
      "Ġventured": 6370,
      "Ġtipt": 6371,
      "Ġdentist": 6372,
      "Bun": 6373,
      "Millie": 6374,
      "Polly": 6375,
      "oh": 6376,
      "Ëľ": 6377,
      "Ġmer": 6378,
      "atur": 6379,
      "ĠSal": 6380,
      "ĠyouÃ¢": 6381,
      "Ġweeke": 6382,
      "itted": 6383,
      "urry": 6384,
      "opes": 6385,
      "Ġfever": 6386,
      "âĤ¬Ëľ": 6387,
      "Ġchoo": 6388,
      "obody": 6389,
      "Ġsnail": 6390,
      "Ġwrist": 6391,
      "Ġlistens": 6392,
      "aced": 6393,
      "ĠOwl": 6394,
      "Ġbuying": 6395,
      "Ġgrowling": 6396,
      "Ġpassen": 6397,
      "Ġsupplies": 6398,
      "Ġembarrass": 6399,
      "Grace": 6400,
      "Ġrescued": 6401,
      "Ġcountryside": 6402,
      "Ġherbs": 6403,
      "Ġtwinkling": 6404,
      "Ġresult": 6405,
      "ĠPippin": 6406,
      "Ġfarther": 6407,
      "mas": 6408,
      "uke": 6409,
      "Ġhour": 6410,
      "Ġhundred": 6411,
      "Ġfirm": 6412,
      "ĠSk": 6413,
      "ĠSay": 6414,
      "igi": 6415,
      "Ġstair": 6416,
      "Ġstern": 6417,
      "Ġwept": 6418,
      "Ġrobb": 6419,
      "Ġglitter": 6420,
      "oys": 6421,
      "Ġconn": 6422,
      "ĠNew": 6423,
      "Ġsmiley": 6424,
      "ĠRabbit": 6425,
      "Ġresting": 6426,
      "Ġprints": 6427,
      "Ġreads": 6428,
      "ĠBeing": 6429,
      "Ġarguing": 6430,
      "Ġmasks": 6431,
      "Ġunpacked": 6432,
      "Ġwiggled": 6433,
      "Ġrecommended": 6434,
      "Ġlungs": 6435,
      "Ġannoy": 6436,
      "Ġseashell": 6437,
      "Ġscrubbed": 6438,
      "jesty": 6439,
      "Ġsnatched": 6440,
      "Ġweekend": 6441,
      "Days": 6442,
      "Excuse": 6443,
      "Rose": 6444,
      "aa": 6445,
      "lings": 6446,
      "njoy": 6447,
      "pite": 6448,
      "Ġwid": 6449,
      "res": 6450,
      "ition": 6451,
      "Ġcust": 6452,
      "ĠTess": 6453,
      "imon": 6454,
      "Ġyouth": 6455,
      "icorn": 6456,
      "Ġhomework": 6457,
      "essie": 6458,
      "bbly": 6459,
      "Ġpebbles": 6460,
      "ÅĵThis": 6461,
      "Ġdollars": 6462,
      "Ġunited": 6463,
      "Ġunicorn": 6464,
      "Ġworkers": 6465,
      "coat": 6466,
      "Ġbehavi": 6467,
      "Ġcuts": 6468,
      "Ġpoliceman": 6469,
      "Ġadding": 6470,
      "Ġsilent": 6471,
      "Ġpeeking": 6472,
      "Ġdelivered": 6473,
      "Ġsandcastles": 6474,
      "Ġnails": 6475,
      "ĠRover": 6476,
      "Ġsausages": 6477,
      "Ġgroceries": 6478,
      "Ġquacked": 6479,
      "Leo": 6480,
      "boo": 6481,
      "mallow": 6482,
      "ners": 6483,
      "urious": 6484,
      "Ġ2": 6485,
      "Ġast": 6486,
      "Ġsway": 6487,
      "Ġcough": 6488,
      "Ġdipped": 6489,
      "ords": 6490,
      "esome": 6491,
      "igning": 6492,
      "Ġscales": 6493,
      "Ġmane": 6494,
      "bley": 6495,
      "Ġyourselves": 6496,
      "Ġwilling": 6497,
      "ĠJacky": 6498,
      "Ġracc": 6499,
      "ÅĵMommy": 6500,
      "Ġjoking": 6501,
      "Ġarr": 6502,
      "Ġrule": 6503,
      "Ġpots": 6504,
      "Ġactions": 6505,
      "Ġcheering": 6506,
      "Ġspeaking": 6507,
      "Ġpans": 6508,
      "arshmallow": 6509,
      "Ġshelves": 6510,
      "Ġagrees": 6511,
      "Ġsnowballs": 6512,
      "Ġcalmed": 6513,
      "Ġcashier": 6514,
      "Ġtiptoed": 6515,
      "Ġraccoon": 6516,
      "Cl": 6517,
      "Kat": 6518,
      "Sophie": 6519,
      "Uh": 6520,
      "the": 6521,
      "ences": 6522,
      "Ġthousand": 6523,
      "Ġeast": 6524,
      "Ġbelly": 6525,
      "Ġshined": 6526,
      "ĠMel": 6527,
      "Ġgoals": 6528,
      "aine": 6529,
      "Ġcans": 6530,
      "?\",": 6531,
      "Ġnoses": 6532,
      "obble": 6533,
      "Ġcoloring": 6534,
      "Ġusual": 6535,
      "ĠRobby": 6536,
      "Ġowners": 6537,
      "Ġworker": 6538,
      "Ġsticking": 6539,
      "Ġraincoat": 6540,
      "Ġtails": 6541,
      "Ġdancers": 6542,
      "ouple": 6543,
      "Ġcreamy": 6544,
      "ĠStay": 6545,
      "Ġpaying": 6546,
      "Ġawesome": 6547,
      "Ġrecording": 6548,
      "Ġpedals": 6549,
      "ĠGoodbye": 6550,
      "Ġribbons": 6551,
      "Ġtraveled": 6552,
      "ĠMajesty": 6553,
      "ĠChristmas": 6554,
      "Ġdrifted": 6555,
      "ĠKeep": 6556,
      "Ġdelivery": 6557,
      "?!": 6558,
      "Sandy": 6559,
      "tle": 6560,
      "zes": 6561,
      "Ġtodd": 6562,
      "Ġcouple": 6563,
      "Ġwasted": 6564,
      "Ġocc": 6565,
      "Ġthird": 6566,
      "Ġwears": 6567,
      "ĠMil": 6568,
      "Ġstartled": 6569,
      "Ġflight": 6570,
      "ishy": 6571,
      "Ġbadge": 6572,
      "Ġdarkness": 6573,
      "uggles": 6574,
      "Ġbowls": 6575,
      "Ġattack": 6576,
      "Ġbuckets": 6577,
      "Ġwarri": 6578,
      "Ġprotecting": 6579,
      "Ġscarves": 6580,
      "ments": 6581,
      "Ġwipes": 6582,
      "Ġclowns": 6583,
      "ĠZoom": 6584,
      "ĠSnuggles": 6585,
      "Ġscratches": 6586,
      "Ġobjects": 6587,
      "Ġexperien": 6588,
      "lowers": 6589,
      "ĠElaine": 6590,
      "Ġhesitant": 6591,
      "Ġgaze": 6592,
      "Shh": 6593,
      "Ġfamilies": 6594,
      "Ġafford": 6595,
      "Ġchuckled": 6596,
      "Alex": 6597,
      "aven": 6598,
      "nger": 6599,
      "Ġaud": 6600,
      "ouch": 6601,
      "Ġden": 6602,
      "Ġpause": 6603,
      "Ġopp": 6604,
      "inger": 6605,
      "iled": 6606,
      "iding": 6607,
      "Ġspong": 6608,
      "ĠJon": 6609,
      "ĠLarry": 6610,
      "Ġswirl": 6611,
      "ĠDick": 6612,
      "Ġlearns": 6613,
      "Ġtexture": 6614,
      "Ġcolored": 6615,
      "Ġunf": 6616,
      "Ġreplaced": 6617,
      "Ġdrawers": 6618,
      "Ġsecure": 6619,
      "Ġpacking": 6620,
      "Ġmarks": 6621,
      "Ġvalued": 6622,
      "Ġsplashes": 6623,
      "Ġreply": 6624,
      "Ġcrabs": 6625,
      "Ġtickled": 6626,
      "Ġwraps": 6627,
      "Ġseconds": 6628,
      "Ġburst": 6629,
      "Ġfluttered": 6630,
      "Ġforgiven": 6631,
      "ĠFriends": 6632,
      "--": 6633,
      "tuce": 6634,
      "Ġcoral": 6635,
      "Ġlined": 6636,
      "ility": 6637,
      "oni": 6638,
      "Ġrising": 6639,
      "Ġstem": 6640,
      "ĠBo": 6641,
      "ĠMira": 6642,
      "ĠcanÃ¢": 6643,
      "Ġbacked": 6644,
      "Ġbackwards": 6645,
      "Ġfaced": 6646,
      "Ġchip": 6647,
      "ĠDe": 6648,
      "Ġslam": 6649,
      "Ġslices": 6650,
      "Ġlettuce": 6651,
      "ĠGigi": 6652,
      "Ġdrawn": 6653,
      "ĠSpark": 6654,
      "Ġimportance": 6655,
      "ĠJohnson": 6656,
      "ĠOur": 6657,
      "Ġfairies": 6658,
      "Ġmiles": 6659,
      "Ġvanish": 6660,
      "ivity": 6661,
      "Ġjackets": 6662,
      "Ġwires": 6663,
      "Ġsneaky": 6664,
      "Ġstroked": 6665,
      "Ġtwinkle": 6666,
      "ĠJessie": 6667,
      "Ġfamiliar": 6668,
      "Ġcautiously": 6669,
      "Ġaccomplish": 6670,
      "ĠDickson": 6671,
      "00": 6672,
      "Boo": 6673,
      "Dan": 6674,
      "Fin": 6675,
      "Fine": 6676,
      "Wh": 6677,
      "ded": 6678,
      "Ġbars": 6679,
      "Ġcott": 6680,
      "Ġlower": 6681,
      "Ġmi": 6682,
      "Ġnine": 6683,
      "Ġinsp": 6684,
      "Ġech": 6685,
      "Ġrather": 6686,
      "Ġneither": 6687,
      "ĠMart": 6688,
      "ĠWas": 6689,
      "Ġgotta": 6690,
      "Ġskill": 6691,
      "aker": 6692,
      "Ġrocking": 6693,
      "Ġafterwards": 6694,
      "Ġtowels": 6695,
      "ĠRemember": 6696,
      "Ġmuscle": 6697,
      "Ġhider": 6698,
      "Ġhides": 6699,
      "Ġpointy": 6700,
      "hog": 6701,
      "ĠwouldnÃ¢": 6702,
      "Ġdiving": 6703,
      "Ġscaring": 6704,
      "Ġgracefully": 6705,
      "Ġarrows": 6706,
      "Ġgiraff": 6707,
      "Ġhallway": 6708,
      "Ġtalented": 6709,
      "Ġbakery": 6710,
      "Ġdeserve": 6711,
      "Ġtimer": 6712,
      "Ġsponge": 6713,
      "Ġgiraffes": 6714,
      "?'": 6715,
      "For": 6716,
      "Gre": 6717,
      "eese": 6718,
      "jo": 6719,
      "uh": 6720,
      "hello": 6721,
      "Ġdots": 6722,
      "Ġmur": 6723,
      "Ġmaster": 6724,
      "Ġglee": 6725,
      "ĠSmo": 6726,
      "Ġbead": 6727,
      "rip": 6728,
      "Ġnect": 6729,
      "Ġreass": 6730,
      "Ġage": 6731,
      "emma": 6732,
      "Ġsnuck": 6733,
      "Ġadult": 6734,
      "ĠPrin": 6735,
      "ĠGary": 6736,
      "ĠNina": 6737,
      "ĠNobody": 6738,
      "Ġcloses": 6739,
      "Ġparties": 6740,
      "Ġpretends": 6741,
      "boat": 6742,
      "Ġprincesses": 6743,
      "umbling": 6744,
      "Ġnaps": 6745,
      "Ġpotion": 6746,
      "Ġforgetting": 6747,
      "Ġstarfish": 6748,
      "izzie": 6749,
      "Ġseeker": 6750,
      "Meow": 6751,
      "Ġleaning": 6752,
      "Ġbasement": 6753,
      "Ġhedgehog": 6754,
      "Ġstomped": 6755,
      "Ġstroll": 6756,
      "Ġfluttering": 6757,
      "Tweety": 6758,
      "ĠFroggy": 6759,
      "Ġbeginning": 6760,
      "Unfortunately": 6761,
      "Ġnectar": 6762,
      "fl": 6763,
      "sure": 6764,
      "Ġwobble": 6765,
      "ering": 6766,
      "Ġoh": 6767,
      "ids": 6768,
      "anz": 6769,
      "Ġnood": 6770,
      "ĠSus": 6771,
      "ormed": 6772,
      "ĠHal": 6773,
      "irts": 6774,
      "ades": 6775,
      "elia": 6776,
      "Ġseason": 6777,
      "ĠWendy": 6778,
      "Ġcond": 6779,
      "ĠLuckily": 6780,
      "Ġflas": 6781,
      "Ġchop": 6782,
      "Ġdads": 6783,
      "aps": 6784,
      "Ġgrandp": 6785,
      "Ġremote": 6786,
      "sol": 6787,
      "ĠRain": 6788,
      "ĠThose": 6789,
      "Ġpatted": 6790,
      "Ġmarked": 6791,
      "Ġplanning": 6792,
      "Ġsigned": 6793,
      "Ġchoices": 6794,
      "Ġpaths": 6795,
      "Ġsquares": 6796,
      "Ġcomplained": 6797,
      "Ġpresses": 6798,
      "Ġcheeks": 6799,
      "Ġradishes": 6800,
      "Ġhesitated": 6801,
      "Ġchefs": 6802,
      "Ġpaddled": 6803,
      "Ġsnuggle": 6804,
      "Ġwarrior": 6805,
      "Ġgrandpare": 6806,
      "abby": 6807,
      "pit": 6808,
      "rat": 6809,
      "vest": 6810,
      "Ġsib": 6811,
      "int": 6812,
      "Ġhitting": 6813,
      "Ġgeese": 6814,
      "ĠSw": 6815,
      "ĠHi": 6816,
      "Ġev": 6817,
      "adie": 6818,
      "ados": 6819,
      "idey": 6820,
      "umm": 6821,
      "Ġlap": 6822,
      "Ġposs": 6823,
      "Ġtramp": 6824,
      "Ġamount": 6825,
      "Ġstorekeeper": 6826,
      "ĠKayla": 6827,
      "Ġcreativity": 6828,
      "Ġpolished": 6829,
      "ĠFlopsy": 6830,
      "Ġhealth": 6831,
      "Ġrespond": 6832,
      "Ġsalty": 6833,
      "Ġmotion": 6834,
      "Ġsource": 6835,
      "ĠZero": 6836,
      "Ġsweat": 6837,
      "Ġresisted": 6838,
      "ÅĵWhatÃ¢": 6839,
      "Ġavocados": 6840,
      "ĠRobbie": 6841,
      "Ġdiscussed": 6842,
      "Ġsuperheroes": 6843,
      "ĠSuzie": 6844,
      "Ġflavor": 6845,
      "Ġrusty": 6846,
      "Roar": 6847,
      "Ġcustom": 6848,
      "Ġaudience": 6849,
      "Ġmixture": 6850,
      "Bl": 6851,
      "Whee": 6852,
      "Ġtangled": 6853,
      "Ġcertain": 6854,
      "Ġmerry": 6855,
      "ĠSque": 6856,
      "ĠHello": 6857,
      "Ġrip": 6858,
      "Ġhissed": 6859,
      "ĠAbby": 6860,
      "ĠJan": 6861,
      "ĠJacob": 6862,
      "ddie": 6863,
      "ĠEnjoy": 6864,
      "ĠDin": 6865,
      "Ġposit": 6866,
      "ĠEverybody": 6867,
      "Ġstays": 6868,
      "Ġdarker": 6869,
      "Ġtalks": 6870,
      "Ġsailboat": 6871,
      "Ġwinked": 6872,
      "Ġhonked": 6873,
      "Ġsquealed": 6874,
      "Ġdetermination": 6875,
      "Ġindeed": 6876,
      "Ġtunnels": 6877,
      "Ġedges": 6878,
      "ĠBuzzy": 6879,
      "Ġpumpkins": 6880,
      "Ġblooming": 6881,
      "Ġhelmets": 6882,
      "Ġtricky": 6883,
      "Ġvideos": 6884,
      "ĠUncle": 6885,
      "Ġachieved": 6886,
      "ĠJessica": 6887,
      "ĠBirdy": 6888,
      "Ġdirections": 6889,
      "Ġpassengers": 6890,
      "Ġnoodles": 6891,
      "Ġsiblings": 6892,
      "Ġtrampoline": 6893,
      "Maggie": 6894,
      "Pe": 6895,
      "bird": 6896,
      "eds": 6897,
      "Ġtour": 6898,
      "itude": 6899,
      "Ġlimes": 6900,
      "ĠSimon": 6901,
      "Ġthorn": 6902,
      "Ġropes": 6903,
      "Ġplayers": 6904,
      "Ġnotes": 6905,
      "ĠMouse": 6906,
      "Ġrefu": 6907,
      "using": 6908,
      "Ġfears": 6909,
      "ĠLena": 6910,
      "ĠFar": 6911,
      "ĠChe": 6912,
      "Ġblocking": 6913,
      "Ġtricked": 6914,
      "Ġnapkins": 6915,
      "Ġcorners": 6916,
      "Ġneighbours": 6917,
      "Ġzookeeper": 6918,
      "Ġfilling": 6919,
      "Ġleading": 6920,
      "Ġwishing": 6921,
      "Ġknocks": 6922,
      "Ġfirefighter": 6923,
      "ĠJesse": 6924,
      "Even": 6925,
      "bell": 6926,
      "ials": 6927,
      "ky": 6928,
      "Ġtig": 6929,
      "Ġwadd": 6930,
      "Ġfif": 6931,
      "Ġmast": 6932,
      "idence": 6933,
      "ĠSc": 6934,
      "ĠHar": 6935,
      "Ġkites": 6936,
      "Ġgobbled": 6937,
      "ĠAr": 6938,
      "Ġexcept": 6939,
      "ĠJay": 6940,
      "ĠJudy": 6941,
      "Ġscen": 6942,
      "icked": 6943,
      "ĠLou": 6944,
      "ept": 6945,
      "ĠCra": 6946,
      "ĠHerr": 6947,
      "Ġadults": 6948,
      "Ġteased": 6949,
      "ĠPam": 6950,
      "Ġconse": 6951,
      "Ġwindy": 6952,
      "ĠSpidey": 6953,
      "Ġheading": 6954,
      "Ġruining": 6955,
      "ĠAsh": 6956,
      "Ġprinting": 6957,
      "Ġsnowmen": 6958,
      "Ġtallest": 6959,
      "Ġplans": 6960,
      "Ġkicks": 6961,
      "Ġcelebrating": 6962,
      "Ġperformance": 6963,
      "ĠIsn": 6964,
      "Ġlollipops": 6965,
      "Ġmushrooms": 6966,
      "Ġincluding": 6967,
      "Ġscrews": 6968,
      "Ġrequested": 6969,
      "Charlie": 6970,
      "xcited": 6971,
      "Ġinstrum": 6972,
      "Ġresults": 6973,
      "Ġscraped": 6974,
      "Ġpouted": 6975,
      "ĠPrincess": 6976,
      "Ġtigers": 6977,
      "Kate": 6978,
      "but": 6979,
      "fire": 6980,
      "ms": 6981,
      "rig": 6982,
      "Ġsank": 6983,
      "Ġwow": 6984,
      "ombley": 6985,
      "arrow": 6986,
      "ĠSophia": 6987,
      "onies": 6988,
      "Ġstool": 6989,
      "Ġstitches": 6990,
      "str": 6991,
      "Ġplayroom": 6992,
      "Ġplaytime": 6993,
      "ĠBoun": 6994,
      "choo": 6995,
      "Ġsever": 6996,
      "Ġcoach": 6997,
      "Ġswept": 6998,
      "Ġtreehouse": 6999,
      "Ġtwice": 7000,
      "Ġunsure": 7001,
      "Ġremembering": 7002,
      "Ġmagician": 7003,
      "Ġelf": 7004,
      "brush": 7005,
      "Ġwrapping": 7006,
      "Ġhopeful": 7007,
      "Ġaction": 7008,
      "Ġfolding": 7009,
      "Ġtested": 7010,
      "ĠRoger": 7011,
      "ĠTwombley": 7012,
      "Ġcommun": 7013,
      "ĠFox": 7014,
      "Ġpuppies": 7015,
      "Ġbehaving": 7016,
      "Ġcenter": 7017,
      "ĠMilo": 7018,
      "Ġbeads": 7019,
      "Ġconsequ": 7020,
      "Nemo": 7021,
      "Run": 7022,
      "aired": 7023,
      "ole": 7024,
      "wo": 7025,
      "Ġmes": 7026,
      "Ġgross": 7027,
      "immer": 7028,
      "Ġrings": 7029,
      "Ġbeam": 7030,
      "Ġonions": 7031,
      "Ġonward": 7032,
      "ntil": 7033,
      "ĠBinky": 7034,
      "Ġbodies": 7035,
      "ĠWait": 7036,
      "Ġfeast": 7037,
      "Ġbru": 7038,
      "iece": 7039,
      "Ġcoc": 7040,
      "ĠLaura": 7041,
      "ĠFire": 7042,
      "Ġgrabbing": 7043,
      "aula": 7044,
      "Ġhandful": 7045,
      "iley": 7046,
      "Those": 7047,
      "ÅĵMy": 7048,
      "Ġfinal": 7049,
      "ĠNice": 7050,
      "Ġhandsome": 7051,
      "ĠRalph": 7052,
      "Ġbeloved": 7053,
      "Ġgrassy": 7054,
      "Ġfroze": 7055,
      "retty": 7056,
      "Ġexpress": 7057,
      "Ġspoonful": 7058,
      "Ġrepaired": 7059,
      "Ġdrums": 7060,
      "Ġdelivering": 7061,
      "Ġenthusi": 7062,
      "Ġrewarded": 7063,
      "Ġsimply": 7064,
      "Ġwarnings": 7065,
      "Ġbehaved": 7066,
      "Ġtravelled": 7067,
      "Ġmonths": 7068,
      "iki": 7069,
      "Ġwidened": 7070,
      "Katie": 7071,
      "Ġaccomplishment": 7072,
      "Ġseveral": 7073,
      "Ġmesmer": 7074,
      "Bad": 7075,
      "Ducky": 7076,
      "Ellie": 7077,
      "Nina": 7078,
      "bro": 7079,
      "no": 7080,
      "sie": 7081,
      "yan": 7082,
      "initely": 7083,
      "Ġmarshmallow": 7084,
      "iles": 7085,
      "ĠSl": 7086,
      "ĠHannah": 7087,
      "Ġrus": 7088,
      "step": 7089,
      "allowed": 7090,
      "ĠAbbie": 7091,
      "Ġspikes": 7092,
      "Ġworn": 7093,
      "ĠLuke": 7094,
      "Ġswallowed": 7095,
      "plash": 7096,
      "Ġpecked": 7097,
      "Ġexplo": 7098,
      "ĠCol": 7099,
      "Ġcreations": 7100,
      "Ġamong": 7101,
      "Ġsailors": 7102,
      "Ġprove": 7103,
      "Ġacting": 7104,
      "Ġwiping": 7105,
      "Ġborrowed": 7106,
      "ĠBluey": 7107,
      "Ġrefle": 7108,
      "Ġcushions": 7109,
      "Ġsurroundings": 7110,
      "Ġsports": 7111,
      "ĠOlive": 7112,
      "ĠJesus": 7113,
      "Ġguests": 7114,
      "ĠJeff": 7115,
      "Maria": 7116,
      "Ġmaterials": 7117,
      "Ġconcert": 7118,
      "resident": 7119,
      "Ġtoddler": 7120,
      "Ġenthusiasm": 7121,
      "An": 7122,
      "Fo": 7123,
      "iel": 7124,
      "sa": 7125,
      "tier": 7126,
      "uzzy": 7127,
      "weed": 7128,
      "Ġtuck": 7129,
      "Ġtouc": 7130,
      "its": 7131,
      "Ġponies": 7132,
      "ĠSqu": 7133,
      "Ġthud": 7134,
      "cky": 7135,
      "Ġshoo": 7136,
      "Ġspins": 7137,
      "Ġscient": 7138,
      "Ġflown": 7139,
      "Ġflapping": 7140,
      "Ġcharge": 7141,
      "ĠEddie": 7142,
      "aptain": 7143,
      "ourt": 7144,
      "ĠMomo": 7145,
      "Ġprettier": 7146,
      "Ġbully": 7147,
      "Ġcrew": 7148,
      "Ġthrown": 7149,
      "Ġbelts": 7150,
      "Ġsquishy": 7151,
      "Ġbows": 7152,
      "osen": 7153,
      "Ġmints": 7154,
      "Ġhoriz": 7155,
      "Ġfeeding": 7156,
      "Ġgenie": 7157,
      "ĠZoomy": 7158,
      "Ġlogs": 7159,
      "Ġswans": 7160,
      "Ġbatteries": 7161,
      "Ġforks": 7162,
      "Ġartist": 7163,
      "ibly": 7164,
      "Ġwiggle": 7165,
      "Ġminerals": 7166,
      "Ġsewed": 7167,
      "Ġdamage": 7168,
      "ĠFrog": 7169,
      "ĠAmelia": 7170,
      "Ġbaker": 7171,
      "Ġconsequences": 7172,
      "Ġmarshmallows": 7173,
      "Like": 7174,
      "Milly": 7175,
      "Tr": 7176,
      "io": 7177,
      "rup": 7178,
      "wk": 7179,
      "ÂĹ": 7180,
      "Ġ?": 7181,
      "Ġain": 7182,
      "ĠTry": 7183,
      "Ġund": 7184,
      "ĠIm": 7185,
      "Ġstain": 7186,
      "Ġplucked": 7187,
      "child": 7188,
      "Ġshall": 7189,
      "ĠMabel": 7190,
      "Ġloc": 7191,
      "Ġhelpers": 7192,
      "Ġroses": 7193,
      "ĠLizzie": 7194,
      "Ġblast": 7195,
      "Ġpeck": 7196,
      "anging": 7197,
      "Ġgranted": 7198,
      "ĠPresident": 7199,
      "Ġdollhouse": 7200,
      "Ġconcer": 7201,
      "Ġdisc": 7202,
      "Ġache": 7203,
      "Ġsnowfl": 7204,
      "Ġtablet": 7205,
      "Ġcowb": 7206,
      "Ġrecipe": 7207,
      "ĠWithout": 7208,
      "Ġfilms": 7209,
      "Ġbreathed": 7210,
      "Ġprovided": 7211,
      "Ġsuffered": 7212,
      "Ġcobwebs": 7213,
      "Ġtravelling": 7214,
      "Ġfreedom": 7215,
      "Ġmerma": 7216,
      "Ġbehavior": 7217,
      "Ġechoed": 7218,
      "rigued": 7219,
      "Ġtouches": 7220,
      "Ġscientist": 7221,
      "By": 7222,
      "During": 7223,
      "Danny": 7224,
      "Have": 7225,
      "Mad": 7226,
      "Some": 7227,
      "Toby": 7228,
      "eel": 7229,
      "oss": 7230,
      "pen": 7231,
      "yes": 7232,
      "Ġwins": 7233,
      "reen": 7234,
      "Ġdumb": 7235,
      "ĠTara": 7236,
      "anna": 7237,
      "Ġhawk": 7238,
      "ori": 7239,
      "irty": 7240,
      "Ġsofter": 7241,
      "stick": 7242,
      "elve": 7243,
      "ently": 7244,
      "ĠMick": 7245,
      "aret": 7246,
      "Ġnoon": 7247,
      "Ġmeals": 7248,
      "ongrat": 7249,
      "ĠLove": 7250,
      "Ġvines": 7251,
      "ĠFather": 7252,
      "iona": 7253,
      "Ġcheers": 7254,
      "Ġteles": 7255,
      "ÅĵDo": 7256,
      "ĠNick": 7257,
      "Ġstrongest": 7258,
      "Ġnearly": 7259,
      "Ġdresser": 7260,
      "ĠJaney": 7261,
      "Ġsteady": 7262,
      "Ġunderstands": 7263,
      "uggy": 7264,
      "Ġpennies": 7265,
      "ĠTodd": 7266,
      "Ġrivers": 7267,
      "Ġbaskets": 7268,
      "Ġlifting": 7269,
      "Ġpurpose": 7270,
      "Ġpeacefully": 7271,
      "Ġmatters": 7272,
      "ĠAlthough": 7273,
      "Ġpops": 7274,
      "Ġpraying": 7275,
      "Ġexamining": 7276,
      "Ġleads": 7277,
      "Ġaddress": 7278,
      "ĠUh": 7279,
      "ĠUnder": 7280,
      "ĠSnap": 7281,
      "Ġperforming": 7282,
      "years": 7283,
      "ĠPepper": 7284,
      "Ġzipping": 7285,
      "Ġneatly": 7286,
      "ronaut": 7287,
      "Ġsurrendered": 7288,
      "ĠAbi": 7289,
      "Ġloops": 7290,
      "Ġyielded": 7291,
      "ĠĠĠĠ": 7292,
      "Ġsyrup": 7293,
      "laying": 7294,
      "Ġdefinitely": 7295,
      "Ġastronaut": 7296,
      "Ġarranged": 7297,
      "Ġoccas": 7298,
      "solut": 7299,
      "ongratul": 7300,
      "Ġtelescope": 7301,
      "Ab": 7302,
      "Kim": 7303,
      "Our": 7304,
      "cter": 7305,
      "lo": 7306,
      "lves": 7307,
      "now": 7308,
      "wise": 7309,
      "ĠQ": 7310,
      "Ġtiss": 7311,
      "rest": 7312,
      "Ġheaven": 7313,
      "Ġpens": 7314,
      "Ġsale": 7315,
      "orter": 7316,
      "Ġinter": 7317,
      "Ġyounger": 7318,
      "rie": 7319,
      "Ġplain": 7320,
      "Ġshirts": 7321,
      "Ġdod": 7322,
      "lyn": 7323,
      "ĠMan": 7324,
      "ugs": 7325,
      "Ġseals": 7326,
      "Ġroars": 7327,
      "ddam": 7328,
      "Ġchosen": 7329,
      "Ġswords": 7330,
      "Ġtrans": 7331,
      "Ġglued": 7332,
      "ĠPandy": 7333,
      "Ġconvers": 7334,
      "ĠSpe": 7335,
      "Ġhearing": 7336,
      "Ġpolitely": 7337,
      "Ġbeeh": 7338,
      "Ġseaweed": 7339,
      "Ġcalmly": 7340,
      "Ġspreading": 7341,
      "ĠUp": 7342,
      "Ġgrandchild": 7343,
      "Ġcampfire": 7344,
      "Ġproper": 7345,
      "Ġencouraging": 7346,
      "Ġtype": 7347,
      "Ġheavier": 7348,
      "ĠGranny": 7349,
      "Ġrushing": 7350,
      "Ġhorizon": 7351,
      "!!": 7352,
      "Oops": 7353,
      "Sadly": 7354,
      "Time": 7355,
      "Yummy": 7356,
      "ae": 7357,
      "fall": 7358,
      "yond": 7359,
      "Ġties": 7360,
      "Ġtying": 7361,
      "Ġpours": 7362,
      "Ġsav": 7363,
      "Ġbeyond": 7364,
      "Ġstung": 7365,
      "Ġwithin": 7366,
      "Ġspices": 7367,
      "artment": 7368,
      "Ġleap": 7369,
      "Ġnodd": 7370,
      "Ġflips": 7371,
      "aracter": 7372,
      "Ġthoughts": 7373,
      "Ġtwin": 7374,
      "Ġuntie": 7375,
      "Ġwobbly": 7376,
      "ÅĵMom": 7377,
      "ÅĵWow": 7378,
      "Ġconv": 7379,
      "ĠNever": 7380,
      "Ġcuriously": 7381,
      "ĠDoes": 7382,
      "Ġdropping": 7383,
      "Ġslower": 7384,
      "Ġvisitor": 7385,
      "Ġjobs": 7386,
      "Ġforgets": 7387,
      "ĠStr": 7388,
      "Ġsuppose": 7389,
      "ĠOnly": 7390,
      "Ġclearly": 7391,
      "Ġnervously": 7392,
      "Ġcrossing": 7393,
      "Ġfills": 7394,
      "Ġhunting": 7395,
      "Ġsniffs": 7396,
      "Ġsneezing": 7397,
      "Ġsurfboard": 7398,
      "Ġmillion": 7399,
      "Ġbuzzed": 7400,
      "Ġpoems": 7401,
      "ÅĵYouÃ¢": 7402,
      "Ġcomplaining": 7403,
      "Ġsprinkled": 7404,
      "Ġincreased": 7405,
      "Ġgrowls": 7406,
      "Ġpupils": 7407,
      "ĠMaddy": 7408,
      "Ġrobber": 7409,
      "Great": 7410,
      "ĠSusan": 7411,
      "ĠFarmer": 7412,
      "ĠSquirrel": 7413,
      "solutely": 7414,
      "Ġbeehive": 7415,
      "Br": 7416,
      "Ew": 7417,
      "Harry": 7418,
      "Rachel": 7419,
      "Tilly": 7420,
      "Tina": 7421,
      "Woof": 7422,
      "ker": 7423,
      "mered": 7424,
      "oke": 7425,
      "vant": 7426,
      "Ġfant": 7427,
      "Ġdaring": 7428,
      "Ġmunch": 7429,
      "ĠSir": 7430,
      "ĠSun": 7431,
      "onse": 7432,
      "utter": 7433,
      "Ġease": 7434,
      "elie": 7435,
      "Ġneare": 7436,
      "ĠMon": 7437,
      "Ġmanag": 7438,
      "ongo": 7439,
      "Ġchanging": 7440,
      "Ġslither": 7441,
      "Ġsnort": 7442,
      "ĠPr": 7443,
      "Ġfinishing": 7444,
      "Ġcons": 7445,
      "...\"": 7446,
      "Ġunw": 7447,
      "ĠwonÃ¢": 7448,
      "Ġjoyful": 7449,
      "Ġplanting": 7450,
      "Ġstands": 7451,
      "Ġcausing": 7452,
      "Ġresponse": 7453,
      "Ġinvol": 7454,
      "Ġlifts": 7455,
      "Ġantic": 7456,
      "perate": 7457,
      "illiam": 7458,
      "Ġawful": 7459,
      "ĠUntil": 7460,
      "Ġsuits": 7461,
      "ĠMikey": 7462,
      "Ġwhispering": 7463,
      "ĠRobert": 7464,
      "Ġpuppet": 7465,
      "ĠBirthday": 7466,
      "Ġgreeted": 7467,
      "Ġforgiveness": 7468,
      "Ġslammed": 7469,
      "Blue": 7470,
      "Ġwaddled": 7471,
      "broken": 7472,
      "Follow": 7473,
      "Ġmermaid": 7474,
      "Bet": 7475,
      "Bunny": 7476,
      "Jul": 7477,
      "Lilly": 7478,
      "Miss": 7479,
      "baby": 7480,
      "munk": 7481,
      "upt": 7482,
      "Ġaimed": 7483,
      "Ġhoo": 7484,
      "Ġwanna": 7485,
      "ilted": 7486,
      "Ġstall": 7487,
      "ĠBaa": 7488,
      "Ġform": 7489,
      "Ġshown": 7490,
      "ically": 7491,
      "Ġknots": 7492,
      "ĠWade": 7493,
      "Ġscamp": 7494,
      "ĠLi": 7495,
      "Ġflipped": 7496,
      "Ġchanges": 7497,
      "Ġcharacter": 7498,
      "ĠExcuse": 7499,
      "Ġcares": 7500,
      "ĠFuzzy": 7501,
      "Ġintrigued": 7502,
      "Ġslips": 7503,
      "Ġhanding": 7504,
      "Ġwatering": 7505,
      "ĠCaptain": 7506,
      "Ġoffic": 7507,
      "ĠJojo": 7508,
      "Ġbraver": 7509,
      "Ġwobbled": 7510,
      "ÅĵHi": 7511,
      "ÅĵWell": 7512,
      "Ġconvin": 7513,
      "ĠRyan": 7514,
      "Ġdisob": 7515,
      "Ġdefe": 7516,
      "athan": 7517,
      "Ġthroughout": 7518,
      "shit": 7519,
      "ĠOther": 7520,
      "Ġperformed": 7521,
      "Ġtables": 7522,
      "ĠKaren": 7523,
      "Ġelbow": 7524,
      "Ġsails": 7525,
      "Ġdances": 7526,
      "ĠEmmy": 7527,
      "Ġprod": 7528,
      "Ġfoxes": 7529,
      "Ġbaths": 7530,
      "Ġchopped": 7531,
      "Ġdrivers": 7532,
      "Ġfits": 7533,
      "Ġimagining": 7534,
      "ĠReally": 7535,
      "Ġshrinking": 7536,
      "Ġvanilla": 7537,
      "Ġsymbols": 7538,
      "Ġpedaled": 7539,
      "Ġseparated": 7540,
      "Ġconfl": 7541,
      "Ġfirefly": 7542,
      "ĠJulia": 7543,
      "Ġdamaged": 7544,
      "Ġefforts": 7545,
      "Ġrustling": 7546,
      "Ġrisks": 7547,
      "Frank": 7548,
      "Ġfocused": 7549,
      "Ġconnected": 7550,
      "Ġexperienced": 7551,
      "Ġgrandparents": 7552,
      "eeling": 7553,
      "Adam": 7554,
      "Car": 7555,
      "Jerry": 7556,
      "May": 7557,
      "Rob": 7558,
      "eal": 7559,
      "gain": 7560,
      "haps": 7561,
      "prin": 7562,
      "while": 7563,
      "Ġtar": 7564,
      "Ġwider": 7565,
      "Ġheight": 7566,
      "Ġdate": 7567,
      "anes": 7568,
      "ĠSplash": 7569,
      "otted": 7570,
      "Ġearn": 7571,
      "ooking": 7572,
      "Ġrout": 7573,
      "ading": 7574,
      "ĠBat": 7575,
      "ĠBee": 7576,
      "ĠBessie": 7577,
      "Ġkings": 7578,
      "ounds": 7579,
      "ĠAh": 7580,
      "Ġspook": 7581,
      "Ġspills": 7582,
      "romise": 7583,
      "ĠWo": 7584,
      "Ġwhose": 7585,
      "Ġposter": 7586,
      "Ġovercome": 7587,
      "Ġpuff": 7588,
      "Ġglitt": 7589,
      "Ġraces": 7590,
      "ÅĵNow": 7591,
      "ĠGinger": 7592,
      "ĠGanz": 7593,
      "ĠNana": 7594,
      "Ġwarmly": 7595,
      "Ġyeah": 7596,
      "Ġpartner": 7597,
      "Ġlighter": 7598,
      "Ġcolder": 7599,
      "Ġcounts": 7600,
      "Ġheartbroken": 7601,
      "ounced": 7602,
      "Ġdived": 7603,
      "ĠStan": 7604,
      "Ġdriveway": 7605,
      "Ġtrusting": 7606,
      "Ġpriv": 7607,
      "ĠZip": 7608,
      "Ġtwisty": 7609,
      "Ġgems": 7610,
      "ĠFinn": 7611,
      "Ġdesigned": 7612,
      "Ġappreciated": 7613,
      "Ġinsisting": 7614,
      "Ġdiscussing": 7615,
      "Ġrefreshing": 7616,
      "Ġlicking": 7617,
      "Quick": 7618,
      "Tweetie": 7619,
      "Ġmeowing": 7620,
      "Ġswimsuit": 7621,
      "ĠQuick": 7622,
      "Ġcupcakes": 7623,
      "Ġthorns": 7624,
      "Ġsnowflakes": 7625,
      "Ġscampered": 7626,
      "Ġspooky": 7627,
      "Buddy": 7628,
      "Claire": 7629,
      "cher": 7630,
      "friend": 7631,
      "five": 7632,
      "ibbit": 7633,
      "mates": 7634,
      "rink": 7635,
      "sm": 7636,
      "Ġting": 7637,
      "rect": 7638,
      "Ġwag": 7639,
      "Ġfaded": 7640,
      "iting": 7641,
      "Ġgest": 7642,
      "anwhile": 7643,
      "Ġnibb": 7644,
      "Ġsadd": 7645,
      "iment": 7646,
      "order": 7647,
      "espite": 7648,
      "Ġramp": 7649,
      "river": 7650,
      "ĠBuggy": 7651,
      "ĠBongo": 7652,
      "Ġshady": 7653,
      "ĠAunt": 7654,
      "ĠAmer": 7655,
      "icia": 7656,
      "ĠJax": 7657,
      "ĠJazz": 7658,
      "ĠWin": 7659,
      "Ġmemb": 7660,
      "Ġwhoever": 7661,
      "ueen": 7662,
      "ĠFiona": 7663,
      "Ġpose": 7664,
      "Ġtwelve": 7665,
      "ĠCom": 7666,
      "ĠCould": 7667,
      "ĠCourt": 7668,
      "Ġquilt": 7669,
      "Ġbravest": 7670,
      "ective": 7671,
      "ĠPink": 7672,
      "ÅĵCome": 7673,
      "Ġconfu": 7674,
      "Ġconqu": 7675,
      "Ġstopping": 7676,
      "Ġwrink": 7677,
      "Ġtoward": 7678,
      "Ġblocked": 7679,
      "Ġbiting": 7680,
      "Ġsandpit": 7681,
      "Ġcompared": 7682,
      "Ġcloudy": 7683,
      "Ġprog": 7684,
      "Ġbelieving": 7685,
      "Ġbelongings": 7686,
      "Ġhonking": 7687,
      "Ġignoring": 7688,
      "Ġnecklaces": 7689,
      "Ġprayers": 7690,
      "Ġangels": 7691,
      "Ġawoke": 7692,
      "Ġfishes": 7693,
      "Ġsuggestion": 7694,
      "Ġdiamonds": 7695,
      "Ġheroes": 7696,
      "Ġstreamers": 7697,
      "Ġpepperoni": 7698,
      "Ġpreparing": 7699,
      "Ġwhispers": 7700,
      "Ġsurfing": 7701,
      "Ġoysters": 7702,
      "Ġstudents": 7703,
      "Ġnovels": 7704,
      "Ġwiggly": 7705,
      "Ġuniforms": 7706,
      "Ġsuffering": 7707,
      "Ġ10": 7708,
      "ĠJean": 7709,
      "Ġcorrect": 7710,
      "Ġannoyed": 7711,
      "Ġseashells": 7712,
      "ĠSparky": 7713,
      "Ġevil": 7714,
      "Ġresponded": 7715,
      "ĠCrabby": 7716,
      "Ġmesmerized": 7717,
      "Ġtissue": 7718,
      "Ġanticip": 7719,
      "Ġmembers": 7720,
      "Back": 7721,
      "Baby": 7722,
      "Listen": 7723,
      "Out": 7724,
      "bec": 7725,
      "father": 7726,
      "form": 7727,
      "hind": 7728,
      "line": 7729,
      "mies": 7730,
      "we": 7731,
      "itched": 7732,
      "erk": 7733,
      "Ġhen": 7734,
      "Ġdump": 7735,
      "Ġmate": 7736,
      "isdom": 7737,
      "ĠHoot": 7738,
      "ĠHallow": 7739,
      "Ġinj": 7740,
      "uther": 7741,
      "Ġrott": 7742,
      "Ġstumble": 7743,
      "rier": 7744,
      "Ġsoaking": 7745,
      "ĠMag": 7746,
      "icle": 7747,
      "Ġexch": 7748,
      "Ġclue": 7749,
      "Ġscored": 7750,
      "Ġcosy": 7751,
      "Ġtweet": 7752,
      "Ġsmallest": 7753,
      "ĠGu": 7754,
      "ipes": 7755,
      "Ġexplorer": 7756,
      "Ġclosing": 7757,
      "Ġdeath": 7758,
      "ances": 7759,
      "Ġdressing": 7760,
      "Ġnights": 7761,
      "Ġfires": 7762,
      "Ġsweetest": 7763,
      "Ġworrying": 7764,
      "Ġpromises": 7765,
      "spe": 7766,
      "Ġgrows": 7767,
      "Ġcaw": 7768,
      "Ġmailed": 7769,
      "ĠStart": 7770,
      "ĠAli": 7771,
      "ĠAlong": 7772,
      "ĠAlison": 7773,
      "Ġ''": 7774,
      "screen": 7775,
      "Ġbells": 7776,
      "Ġpays": 7777,
      "Ġerase": 7778,
      "Ġpostman": 7779,
      "Ġgrandson": 7780,
      "Ġgrandbaby": 7781,
      "ĠDavey": 7782,
      "Ġtoaster": 7783,
      "Ġpermitted": 7784,
      "ĠPatty": 7785,
      "Ġbreathing": 7786,
      "Ġpassports": 7787,
      "Ġconfidence": 7788,
      "Ġquarreling": 7789,
      "Ġdelayed": 7790,
      "Ġrepeats": 7791,
      "Ġpunishment": 7792,
      "Ġreassured": 7793,
      "ĠSqueaky": 7794,
      "Ġinstruments": 7795,
      "ĠSpeedy": 7796,
      "Ġconvinced": 7797,
      "ĠHalloween": 7798,
      "Ġrotten": 7799,
      "Bill": 7800,
      "Jamie": 7801,
      "Tony": 7802,
      "ael": 7803,
      "bage": 7804,
      "dress": 7805,
      "found": 7806,
      "ollen": 7807,
      "whe": 7808,
      "ĠX": 7809,
      "Ġtumbled": 7810,
      "Ġais": 7811,
      "Ġaim": 7812,
      "Ġsou": 7813,
      "Ġtot": 7814,
      "Ġhuh": 7815,
      "Ġlent": 7816,
      "Ġdot": 7817,
      "Ġmood": 7818,
      "ido": 7819,
      "ative": 7820,
      "Ġnapping": 7821,
      "Ġnatur": 7822,
      "ĠSadie": 7823,
      "ĠHope": 7824,
      "oosh": 7825,
      "Ġsheets": 7826,
      "Ġsoot": 7827,
      "storm": 7828,
      "unched": 7829,
      "Ġdoves": 7830,
      "Ġaside": 7831,
      "Ġspy": 7832,
      "Ġspat": 7833,
      "ĠWally": 7834,
      "uss": 7835,
      "Ġswollen": 7836,
      "ĠFuzz": 7837,
      "Ġsunscreen": 7838,
      "ĠCle": 7839,
      "ĠCall": 7840,
      "Ġcleared": 7841,
      "bee": 7842,
      "aste": 7843,
      "ĠPer": 7844,
      "ÅĵOkay": 7845,
      "ĠGemma": 7846,
      "Ġwrigg": 7847,
      "ĠNora": 7848,
      "acle": 7849,
      "Ġdrown": 7850,
      "Ġhairdress": 7851,
      "ĠKr": 7852,
      "ichael": 7853,
      "Ġbandages": 7854,
      "Ġstreets": 7855,
      "Ġrespected": 7856,
      "ĠStar": 7857,
      "Ġbanged": 7858,
      "Ġtidied": 7859,
      "Ġgarbage": 7860,
      "ĠBecky": 7861,
      "ĠZara": 7862,
      "ĠZee": 7863,
      "Ġorders": 7864,
      "Ġsunflowers": 7865,
      "Ġawhile": 7866,
      "ĠWhich": 7867,
      "Ġsweep": 7868,
      "Ġsniffing": 7869,
      "Ġenviron": 7870,
      "Ġsending": 7871,
      "Ġhumans": 7872,
      "Ġlanguages": 7873,
      "Ġvehicles": 7874,
      "Ġstroke": 7875,
      "Chloe": 7876,
      "Ġadmiration": 7877,
      "Ġemerged": 7878,
      "Ġtrembled": 7879,
      "Ġflavors": 7880,
      "ĠAnother": 7881,
      "Ġaccomplished": 7882,
      "rrr": 7883,
      "Maddy": 7884,
      "ĠMickey": 7885,
      "Ġoccasion": 7886,
      "ĠQueen": 7887,
      "Ġtarget": 7888,
      "Ġanticipation": 7889,
      "Ġhairdresser": 7890,
      "Any": 7891,
      "Hannah": 7892,
      "Lena": 7893,
      "Mine": 7894,
      "Su": 7895,
      "Very": 7896,
      "crow": 7897,
      "rite": 7898,
      "what": 7899,
      "Ġ5": 7900,
      "Ġill": 7901,
      "hew": 7902,
      "Ġtipped": 7903,
      "Ġsuck": 7904,
      "Ġbamb": 7905,
      "inted": 7906,
      "Ġcoug": 7907,
      "Ġdangers": 7908,
      "ils": 7909,
      "Ġgears": 7910,
      "Ġni": 7911,
      "Ġnuzz": 7912,
      "ĠSleep": 7913,
      "ĠSup": 7914,
      "oto": 7915,
      "Ġins": 7916,
      "ighing": 7917,
      "Ġrin": 7918,
      "Ġstate": 7919,
      "Ġweeds": 7920,
      "ical": 7921,
      "Ġclues": 7922,
      "Ġcarries": 7923,
      "Ġflip": 7924,
      "Ġtrotted": 7925,
      "Ġfond": 7926,
      "Ġgardener": 7927,
      "Ġbeautifully": 7928,
      "ÅĵOf": 7929,
      "Ġcleaner": 7930,
      "ĠGord": 7931,
      "acy": 7932,
      "Ġcraft": 7933,
      "Ġcrashing": 7934,
      "Ġvegg": 7935,
      "Ġjoining": 7936,
      "Ġservice": 7937,
      "Ġrecorder": 7938,
      "Ġrobots": 7939,
      "Ġreport": 7940,
      "Ġself": 7941,
      "Ġsoapy": 7942,
      "ĠFreddie": 7943,
      "Ġtwisting": 7944,
      "Ġcombed": 7945,
      "Ġcuddly": 7946,
      "ĠPeep": 7947,
      "Ġlipstick": 7948,
      "Ġtaped": 7949,
      "Ġzebras": 7950,
      "Ġlending": 7951,
      "Ġpurr": 7952,
      "Ġburying": 7953,
      "Ġsewing": 7954,
      "Ġcupcake": 7955,
      "Ġchipmunk": 7956,
      "Ġcotton": 7957,
      "immering": 7958,
      "steps": 7959,
      "Ġreflection": 7960,
      "Ġlocal": 7961,
      "ddamn": 7962,
      "Ġconversation": 7963,
      "Ġfantastic": 7964,
      "Ġwrinkled": 7965,
      "Ġenvironment": 7966,
      "Ġbamboo": 7967,
      "?!\"": 7968,
      "Karen": 7969,
      "Mira": 7970,
      "Ru": 7971,
      "Watch": 7972,
      "driver": 7973,
      "even": 7974,
      "gar": 7975,
      "tment": 7976,
      "Ġtilted": 7977,
      "Ġbound": 7978,
      "Ġbas": 7979,
      "ouble": 7980,
      "Ġfade": 7981,
      "Ġcops": 7982,
      "Ġlas": 7983,
      "Ġdarl": 7984,
      "Ġmaker": 7985,
      "isions": 7986,
      "Ġodd": 7987,
      "ili": 7988,
      "Ġger": 7989,
      "onnie": 7990,
      "ĠHold": 7991,
      "Ġbeating": 7992,
      "ĠthatÃ¢": 7993,
      "ĠMine": 7994,
      "Ġanger": 7995,
      "Ġjugg": 7996,
      "Ġspare": 7997,
      "ighting": 7998,
      "ument": 7999,
      "ĠWelcome": 8000,
      "Ġscri": 8001,
      "Ġbirdhouse": 8002,
      "Ġtreated": 8003,
      "Ġfaith": 8004,
      "Ġnewfound": 8005,
      "Ġflick": 8006,
      "usty": 8007,
      "Ġdecl": 8008,
      "Ġblond": 8009,
      "roll": 8010,
      "ĠFuck": 8011,
      "bbling": 8012,
      "Ġstrum": 8013,
      "ÅĵHey": 8014,
      "Ġfins": 8015,
      "Ġbluebird": 8016,
      "Ġrainy": 8017,
      "Ġdev": 8018,
      "Ġwarmer": 8019,
      "ĠDog": 8020,
      "ĠThatÃ¢": 8021,
      "Ġpapa": 8022,
      "ship": 8023,
      "ĠOver": 8024,
      "ĠFlora": 8025,
      "Ġwelcoming": 8026,
      "Ġtownspe": 8027,
      "Ġhealing": 8028,
      "Ġshops": 8029,
      "Ġdistract": 8030,
      "Ġdesigning": 8031,
      "ails": 8032,
      "Ġpreschool": 8033,
      "Ġimaginary": 8034,
      "Ġsurv": 8035,
      "ĠStill": 8036,
      "Ġfootsteps": 8037,
      "Ġpicnics": 8038,
      "Ġreminding": 8039,
      "Ġpinching": 8040,
      "Ġdecorating": 8041,
      "Ġgenerosity": 8042,
      "Ġcrawls": 8043,
      "Ġdigs": 8044,
      "Ġaware": 8045,
      "Ġcamel": 8046,
      "Ġhamster": 8047,
      "Ġfigures": 8048,
      "Ġfrowning": 8049,
      "Ġcrowns": 8050,
      "Ġsqueezing": 8051,
      "Ġgrandfather": 8052,
      "Ġdesigns": 8053,
      "Ġpigeons": 8054,
      "ĠVroom": 8055,
      "ĠVien": 8056,
      "Ġscrewdriver": 8057,
      "Ġscores": 8058,
      "Ġrotting": 8059,
      "ibility": 8060,
      "ĠForget": 8061,
      "Ġtwinkled": 8062,
      "ĠDaniel": 8063,
      "Ġsnaps": 8064,
      "Ġcubes": 8065,
      "ĠQuack": 8066,
      "ĠOwen": 8067,
      "Ġsternly": 8068,
      "ĠTessa": 8069,
      "Ġinspired": 8070,
      "Ġmasterp": 8071,
      "Ġcommunic": 8072,
      "Ġexploded": 8073,
      "Ġnodding": 8074,
      "Ġinvolved": 8075,
      "Ġconflict": 8076,
      "Ġtownspeople": 8077,
      "Am": 8078,
      "Dear": 8079,
      "Surpr": 8080,
      "Take": 8081,
      "belt": 8082,
      "ca": 8083,
      "lt": 8084,
      "oard": 8085,
      "oey": 8086,
      "ware": 8087,
      "water": 8088,
      "Ġwoof": 8089,
      "Ġtoss": 8090,
      "ĠTe": 8091,
      "ĠToto": 8092,
      "issy": 8093,
      "ilities": 8094,
      "ats": 8095,
      "atic": 8096,
      "ening": 8097,
      "Ġrowed": 8098,
      "ston": 8099,
      "ĠBra": 8100,
      "Ġshorter": 8101,
      "Ġloses": 8102,
      "Ġboards": 8103,
      "aint": 8104,
      "Ġfailed": 8105,
      "ific": 8106,
      "ĠLuther": 8107,
      "Ġaboard": 8108,
      "Ġthanking": 8109,
      "quet": 8110,
      "Ġposes": 8111,
      "Ġsled": 8112,
      "ĠCurious": 8113,
      "Ġgrant": 8114,
      "ÅĵSee": 8115,
      "Ġsurprising": 8116,
      "uffin": 8117,
      "issa": 8118,
      "Ġtasting": 8119,
      "rench": 8120,
      "Ġduckling": 8121,
      "Ġfloors": 8122,
      "Ġsmelling": 8123,
      "Ġmovements": 8124,
      "Ġpetting": 8125,
      "ordinary": 8126,
      "Ġdespite": 8127,
      "balls": 8128,
      "Ġcomforting": 8129,
      "Ġpuzzled": 8130,
      "Ġwomen": 8131,
      "Ġlaying": 8132,
      "Steve": 8133,
      "Ġshrunk": 8134,
      "Ġseatbelt": 8135,
      "Ġpleaded": 8136,
      "Ġsolving": 8137,
      "Ġwisely": 8138,
      "Ġclassmates": 8139,
      "Ġextraordinary": 8140,
      "Always": 8141,
      "Ġcroaked": 8142,
      "ĠShow": 8143,
      "Ġknocking": 8144,
      "attered": 8145,
      "Ġdiscoveries": 8146,
      "Ġstatues": 8147,
      "ĠTrust": 8148,
      "Ġstacked": 8149,
      "Ġexercises": 8150,
      "Ġincreasing": 8151,
      "ĠGreat": 8152,
      "Ġexpecting": 8153,
      "Ġmaterial": 8154,
      "Ġtemptation": 8155,
      "Ġembarrassing": 8156,
      "Ġfirmly": 8157,
      "Ġoppos": 8158,
      "ĠSmokey": 8159,
      "Ġbruises": 8160,
      "ĠGordon": 8161,
      "Ġveggies": 8162,
      "Ġdarlings": 8163,
      "Beth": 8164,
      "Buzz": 8165,
      "Cindy": 8166,
      "Excited": 8167,
      "Mabel": 8168,
      "Too": 8169,
      "off": 8170,
      "teen": 8171,
      "uppy": 8172,
      "val": 8173,
      "vas": 8174,
      "Ġtill": 8175,
      "Ġsus": 8176,
      "Ġbou": 8177,
      "ĠTaking": 8178,
      "omb": 8179,
      "Ġgall": 8180,
      "ĠSy": 8181,
      "oration": 8182,
      "ĠHelen": 8183,
      "ute": 8184,
      "ĠInd": 8185,
      "stand": 8186,
      "Ġforce": 8187,
      "entr": 8188,
      "Ġbond": 8189,
      "Ġjars": 8190,
      "ĠYouÃ¢": 8191,
      "Ġlevers": 8192,
      "ĠWilliam": 8193,
      "ĠWisdom": 8194,
      "Ġclerk": 8195,
      "ĠTomorrow": 8196,
      "Ġworst": 8197,
      "eman": 8198,
      "empt": 8199,
      "Ġgoodies": 8200,
      "Ġdecisions": 8201,
      "ĠEle": 8202,
      "Ġblown": 8203,
      "Ġabsolutely": 8204,
      "ĠFighting": 8205,
      "ession": 8206,
      "uddles": 8207,
      "andas": 8208,
      "Ġwaterfall": 8209,
      "Ġskunk": 8210,
      "Ġsnapping": 8211,
      "Ġuntied": 8212,
      "ĠPri": 8213,
      "ĠPaula": 8214,
      "ĠPuppy": 8215,
      "Ġdoorway": 8216,
      "ĠRiley": 8217,
      "Ġarrest": 8218,
      "Ġforgives": 8219,
      "Ġbuses": 8220,
      "Ġlessons": 8221,
      "Ġstew": 8222,
      "Ġsteering": 8223,
      "Ġtighter": 8224,
      "meal": 8225,
      "Ġpackages": 8226,
      "Ġafar": 8227,
      "Ġexpert": 8228,
      "Ġreturning": 8229,
      "Ġtroubles": 8230,
      "ĠAlright": 8231,
      "Ġchocolates": 8232,
      "Ġanswering": 8233,
      "Ġscram": 8234,
      "Ġguessing": 8235,
      "Ġqueens": 8236,
      "Ġcovering": 8237,
      "Ġunlo": 8238,
      "Ġgrandd": 8239,
      "Ġtravels": 8240,
      "Ġspeeding": 8241,
      "Ġcurl": 8242,
      "uctor": 8243,
      "Ġoatmeal": 8244,
      "Ġbeeped": 8245,
      "Ġinform": 8246,
      "Ġapplauding": 8247,
      "Ġfleas": 8248,
      "Ġbothering": 8249,
      "ĠChris": 8250,
      "annon": 8251,
      "Ġspits": 8252,
      "ĠFrankie": 8253,
      "Ġinsects": 8254,
      "ĠRobin": 8255,
      "Ġobeyed": 8256,
      "ĠAnything": 8257,
      "Ġforgiving": 8258,
      "Ġparticularly": 8259,
      "ĠSkip": 8260,
      "Ġannoying": 8261,
      "Ġflashing": 8262,
      "Ġcustomers": 8263,
      "Ġrefuse": 8264,
      "Ġscene": 8265,
      "Ġcocoon": 8266,
      "ossom": 8267,
      "Ġconvince": 8268,
      "Ġmunching": 8269,
      "Ġunwra": 8270,
      "ĠBateman": 8271,
      "Ġgesture": 8272,
      "Ġnatural": 8273,
      "Ġnuzzled": 8274,
      "Ruby": 8275,
      "Ġopposite": 8276,
      "Hop": 8277,
      "Honey": 8278,
      "IN": 8279,
      "Jess": 8280,
      "Penny": 8281,
      "Ralph": 8282,
      "Since": 8283,
      "bly": 8284,
      "ippy": 8285,
      "lers": 8286,
      "ost": 8287,
      "pes": 8288,
      "rily": 8289,
      "vroom": 8290,
      "Ġ4": 8291,
      "Ġsens": 8292,
      "Ġbitten": 8293,
      "ouched": 8294,
      "ita": 8295,
      "Ġlim": 8296,
      "Ġmoo": 8297,
      "Ġpandas": 8298,
      "onest": 8299,
      "llas": 8300,
      "ĠHu": 8301,
      "ĠHoney": 8302,
      "ĠHolly": 8303,
      "aming": 8304,
      "Ġsteth": 8305,
      "rian": 8306,
      "Ġweighing": 8307,
      "ĠBi": 8308,
      "Ġshallow": 8309,
      "ĠMichael": 8310,
      "Ġreun": 8311,
      "Ġsmashed": 8312,
      "Ġcanvas": 8313,
      "Ġknit": 8314,
      "Ġalien": 8315,
      "ĠButt": 8316,
      "ĠLooking": 8317,
      "Ġprank": 8318,
      "Ġgoodby": 8319,
      "Ġchin": 8320,
      "Ġswallow": 8321,
      "ĠDen": 8322,
      "ĠDory": 8323,
      "ĠDespite": 8324,
      "road": 8325,
      "ĠFido": 8326,
      "Ġtapped": 8327,
      "Ġanybody": 8328,
      "Ġwaters": 8329,
      "ortun": 8330,
      "Ġends": 8331,
      "Ġbrains": 8332,
      "ÅĵSure": 8333,
      "Whenever": 8334,
      "LetÃ¢": 8335,
      "ĠNe": 8336,
      "acles": 8337,
      "ĠRock": 8338,
      "Ġrains": 8339,
      "Ġsquaw": 8340,
      "Ġsnowy": 8341,
      "ĠKelly": 8342,
      "Jacky": 8343,
      "oscope": 8344,
      "ĠGrand": 8345,
      "Ġvisitors": 8346,
      "Ġelect": 8347,
      "Ġattitude": 8348,
      "earl": 8349,
      "Ġgiggles": 8350,
      "Ġimages": 8351,
      "Ġpersonal": 8352,
      "Ġpills": 8353,
      "Ġtoolbox": 8354,
      "Ġtidying": 8355,
      "Ġpizzas": 8356,
      "Ġprick": 8357,
      "ĠBruce": 8358,
      "Ġpanicked": 8359,
      "Ġgasp": 8360,
      "Ġsqueaked": 8361,
      "Ġchews": 8362,
      "Ġwiser": 8363,
      "ivia": 8364,
      "Ġapologised": 8365,
      "Ġturtles": 8366,
      "Ġsqueezes": 8367,
      "Ġscarecrow": 8368,
      "Ġrats": 8369,
      "Ġmember": 8370,
      "Ġloading": 8371,
      "Ġumbrellas": 8372,
      "Ġspells": 8373,
      "Ġscolds": 8374,
      "Ġtearing": 8375,
      "Ġtires": 8376,
      "Ġexplains": 8377,
      "ĠVery": 8378,
      "Ġappreciation": 8379,
      "Ġmeatballs": 8380,
      "Ġtubes": 8381,
      "Ġdisplayed": 8382,
      "Ġpurrs": 8383,
      "Ġfreezing": 8384,
      "Ġnightmares": 8385,
      "Ġfascinating": 8386,
      "Ġcommon": 8387,
      "ĠMeg": 8388,
      "Ġbrushing": 8389,
      "Ġchatter": 8390,
      "Ġpaddling": 8391,
      "Ġpeeled": 8392,
      "ĠKevin": 8393,
      "clock": 8394,
      "Ġencouragement": 8395,
      "Ġsystem": 8396,
      "Ġswayed": 8397,
      "Clara": 8398,
      "Ġopportun": 8399,
      "Ġtextures": 8400,
      "Ġconductor": 8401,
      "Ġcowboy": 8402,
      "Ġastronauts": 8403,
      "Betty": 8404,
      "ĠWolf": 8405,
      "Ġprivate": 8406,
      "ĠSuper": 8407,
      "Ġgerms": 8408,
      "ĠVienna": 8409,
      "Ġmasterpiece": 8410,
      "Ġsusp": 8411,
      "Ġbouquet": 8412,
      "Ġstethoscope": 8413,
      "Ġgoodbyes": 8414,
      "Abby": 8415,
      "Boys": 8416,
      "Get": 8417,
      "Jessie": 8418,
      "Mat": 8419,
      "Papa": 8420,
      "bl": 8421,
      "cri": 8422,
      "da": 8423,
      "emy": 8424,
      "how": 8425,
      "lor": 8426,
      "lish": 8427,
      "olp": 8428,
      "rnie": 8429,
      "well": 8430,
      "xophone": 8431,
      "Ġtend": 8432,
      "Ġsigning": 8433,
      "Ġtheat": 8434,
      "Ġbless": 8435,
      "Ġbomb": 8436,
      "rey": 8437,
      "Ġcig": 8438,
      "Ġpipes": 8439,
      "Ġgrip": 8440,
      "aning": 8441,
      "Ġsaxophone": 8442,
      "ĠSweet": 8443,
      "ĠSatur": 8444,
      "immered": 8445,
      "orking": 8446,
      "leg": 8447,
      "ĠHo": 8448,
      "iring": 8449,
      "igger": 8450,
      "Ġshaped": 8451,
      "Ġashes": 8452,
      "Ġnecess": 8453,
      "ĠMila": 8454,
      "Ġreapp": 8455,
      "ĠAva": 8456,
      "ists": 8457,
      "hings": 8458,
      "Ġscent": 8459,
      "ownie": 8460,
      "Ġfail": 8461,
      "agine": 8462,
      "Ġchilly": 8463,
      "Ġenemy": 8464,
      "ĠCla": 8465,
      "Ġchecks": 8466,
      "Ġgardens": 8467,
      "ection": 8468,
      "ĠPlaying": 8469,
      "ÅĵThe": 8470,
      "ÅĵGood": 8471,
      "ÅĵWhere": 8472,
      "Ġdollar": 8473,
      "Ġmeaning": 8474,
      "ĠRicky": 8475,
      "Ġjoked": 8476,
      "Ġforests": 8477,
      "ĠDoctor": 8478,
      "Ġleaking": 8479,
      "Ġsingers": 8480,
      "Ġdripping": 8481,
      "ulars": 8482,
      "Ġwoodcut": 8483,
      "asha": 8484,
      "udolp": 8485,
      "ĠJennie": 8486,
      "ugging": 8487,
      "Ġattempt": 8488,
      "Ġsprout": 8489,
      "Ġcollap": 8490,
      "Ġsmoking": 8491,
      "Ġdrying": 8492,
      "Ġnests": 8493,
      "Ġservant": 8494,
      "Ġmattered": 8495,
      "Ġfootprin": 8496,
      "Ġcheerfully": 8497,
      "Ġtesting": 8498,
      "ĠBehind": 8499,
      "Ġgasps": 8500,
      "Ġchecking": 8501,
      "Ġadds": 8502,
      "Ġgoats": 8503,
      "Ġargument": 8504,
      "ĠWhite": 8505,
      "Remy": 8506,
      "Ġcuddles": 8507,
      "ĠClare": 8508,
      "Ġstamped": 8509,
      "oculars": 8510,
      "Ġquestioned": 8511,
      "Ġtraps": 8512,
      "uction": 8513,
      "Ġrepeating": 8514,
      "Ġcomputers": 8515,
      "ĠSeeing": 8516,
      "Ġbinoculars": 8517,
      "Ġapplause": 8518,
      "Ġsincere": 8519,
      "Ġprevented": 8520,
      "ĠElsa": 8521,
      "Ġmosquitoes": 8522,
      "Ġkilling": 8523,
      "Ġdamn": 8524,
      "ĠAmanda": 8525,
      "Ġactivity": 8526,
      "ĠPoor": 8527,
      "Ġconcentr": 8528,
      "Ġcottage": 8529,
      "Ġcustomer": 8530,
      "ĠLouise": 8531,
      "Ġexpression": 8532,
      "Brownie": 8533,
      "Ġnibbled": 8534,
      "Ġaisle": 8535,
      "Ġdeclared": 8536,
      "ĠPrice": 8537,
      "Ġscrambled": 8538,
      "ĠButtons": 8539,
      "ĠSaturday": 8540,
      "udolph": 8541,
      "??": 8542,
      "Bang": 8543,
      "Co": 8544,
      "Mart": 8545,
      "Red": 8546,
      "Rosie": 8547,
      "Santa": 8548,
      "bank": 8549,
      "jack": 8550,
      "ka": 8551,
      "ks": 8552,
      "pr": 8553,
      "py": 8554,
      "ris": 8555,
      "rough": 8556,
      "ulp": 8557,
      "uice": 8558,
      "Ġtossed": 8559,
      "Ġhood": 8560,
      "Ġwakes": 8561,
      "Ġcongratul": 8562,
      "Ġdip": 8563,
      "Ġpouch": 8564,
      "Ġwashes": 8565,
      "ĠTime": 8566,
      "ĠTurt": 8567,
      "arles": 8568,
      "inging": 8569,
      "Ġgap": 8570,
      "Ġgroom": 8571,
      "ani": 8572,
      "Ġnast": 8573,
      "Ġhab": 8574,
      "ĠSince": 8575,
      "Ġyum": 8576,
      "ĠBad": 8577,
      "ĠBang": 8578,
      "Ġlies": 8579,
      "Ġassh": 8580,
      "ĠMuffin": 8581,
      "rying": 8582,
      "Ġjing": 8583,
      "ĠAna": 8584,
      "ĠAcc": 8585,
      "ĠgirlÃ¢": 8586,
      "ics": 8587,
      "ĠJones": 8588,
      "ums": 8589,
      "Ġbacks": 8590,
      "Ġsculp": 8591,
      "Ġalthough": 8592,
      "ĠLots": 8593,
      "ĠLenny": 8594,
      "Ġprison": 8595,
      "ĠEd": 8596,
      "ĠEver": 8597,
      "Ġblinking": 8598,
      "Ġbecomes": 8599,
      "ĠFind": 8600,
      "Ġtrigger": 8601,
      "Ġmoat": 8602,
      "umpkin": 8603,
      "Ġexploration": 8604,
      "Ġfoam": 8605,
      "Ġsnug": 8606,
      "ortunately": 8607,
      "ilda": 8608,
      "ĠPumpkin": 8609,
      "ÅĵBut": 8610,
      "ÅĵWho": 8611,
      "Ġwinding": 8612,
      "Ġunfortunately": 8613,
      "ĠRavi": 8614,
      "ĠRudolph": 8615,
      "Ġjoins": 8616,
      "Ġbrightest": 8617,
      "Ġbits": 8618,
      "Ġcrouched": 8619,
      "ths": 8620,
      "Ġparted": 8621,
      "Ġsquir": 8622,
      "Ġsquished": 8623,
      "Ġswimmer": 8624,
      "ĠOff": 8625,
      "Ġmarve": 8626,
      "Ġvisits": 8627,
      "Ġpaintbrush": 8628,
      "iggle": 8629,
      "ipper": 8630,
      "Ġzooms": 8631,
      "Goodnight": 8632,
      "ĠStand": 8633,
      "ĠStrip": 8634,
      "Ġstretches": 8635,
      "Ġpriest": 8636,
      "ĠBeep": 8637,
      "Ġsqueaky": 8638,
      "Ġrelaxing": 8639,
      "Ġmiracle": 8640,
      "Ġwealth": 8641,
      "faction": 8642,
      "Ġscratching": 8643,
      "Ġtoothbrush": 8644,
      "Ġmayor": 8645,
      "Ġlabels": 8646,
      "Ġengines": 8647,
      "Ġartwork": 8648,
      "Ġtriangles": 8649,
      "Ġdisturbing": 8650,
      "Ġstomp": 8651,
      "Ġreversed": 8652,
      "Ġshovels": 8653,
      "ĠKaty": 8654,
      "Ġlumberjack": 8655,
      "Ġappearance": 8656,
      "ĠRudy": 8657,
      "Ġflaps": 8658,
      "ĠOlivia": 8659,
      "Ġsatisfaction": 8660,
      "Ġwounds": 8661,
      "Freddy": 8662,
      "ĠSwim": 8663,
      "Ġpositive": 8664,
      "belle": 8665,
      "ĠBouncy": 8666,
      "elieve": 8667,
      "Ġmanager": 8668,
      "Ġslithered": 8669,
      "Ġglittered": 8670,
      "Ġconquered": 8671,
      "Ġdrowned": 8672,
      "Ġlasers": 8673,
      "Ġinformation": 8674,
      "Ġreunited": 8675,
      "Ġelectric": 8676,
      "Ġtheatre": 8677,
      "Ġwoodcutter": 8678,
      "Ġsculpture": 8679,
      "',": 8680,
      "Aunt": 8681,
      "Feeling": 8682,
      "Joy": 8683,
      "Kayla": 8684,
      "Liz": 8685,
      "Lucky": 8686,
      "Pretty": 8687,
      "Sophia": 8688,
      "fly": 8689,
      "flowers": 8690,
      "just": 8691,
      "paste": 8692,
      "site": 8693,
      "ton": 8694,
      "Â¦": 8695,
      "Ãĥ": 8696,
      "Ġborn": 8697,
      "Ġbuddy": 8698,
      "innie": 8699,
      "Ġwaded": 8700,
      "Ġpounds": 8701,
      "ĠTy": 8702,
      "ĠThings": 8703,
      "aron": 8704,
      "Ġgang": 8705,
      "Ġnanny": 8706,
      "Ġthirty": 8707,
      "lle": 8708,
      "lec": 8709,
      "lets": 8710,
      "Ġrays": 8711,
      "cell": 8712,
      "ĠmomÃ¢": 8713,
      "Ġmommies": 8714,
      "ĠBrian": 8715,
      "Ġforty": 8716,
      "Ġformed": 8717,
      "Ġkittens": 8718,
      "ended": 8719,
      "ĠMake": 8720,
      "ĠMother": 8721,
      "Ġank": 8722,
      "Ġmanners": 8723,
      "âĤ¬,": 8724,
      "âĤ¬Â¦": 8725,
      "ĠLaw": 8726,
      "Ġchili": 8727,
      "ĠEric": 8728,
      "ĠDora": 8729,
      "Ġpeep": 8730,
      "Ġhandy": 8731,
      "Ġoverhead": 8732,
      "Ġbubbly": 8733,
      "ĠJoanna": 8734,
      "Ġraising": 8735,
      "ĠPen": 8736,
      "ĠPretty": 8737,
      "ĠPearl": 8738,
      "ĠGabby": 8739,
      "Ġrocky": 8740,
      "Ġdoorbell": 8741,
      "Ġunless": 8742,
      "ĠNell": 8743,
      "covered": 8744,
      "Ġsurely": 8745,
      "Ġhops": 8746,
      "Ġstores": 8747,
      "Ġmessages": 8748,
      "Ġsandy": 8749,
      "Ġcracks": 8750,
      "boards": 8751,
      "Ġstepping": 8752,
      "shadow": 8753,
      "ĠOuch": 8754,
      "ĠOstrich": 8755,
      "Ġcompan": 8756,
      "Ġsparks": 8757,
      "Ġjoyfully": 8758,
      "Ġsecur": 8759,
      "Ġteachers": 8760,
      "Ġnecks": 8761,
      "Ġactive": 8762,
      "Ġstorms": 8763,
      "Ġpresented": 8764,
      "ĠChuck": 8765,
      "ĠChief": 8766,
      "Ġminds": 8767,
      "Ġprotection": 8768,
      "Everything": 8769,
      "Everyday": 8770,
      "ÅĵIf": 8771,
      "Ġdecoration": 8772,
      "Meanwhile": 8773,
      "Ġapology": 8774,
      "Ġfrowns": 8775,
      "Ġterrified": 8776,
      "Ġscares": 8777,
      "Ġwriter": 8778,
      "ĠShannon": 8779,
      "Ġrescuing": 8780,
      "ĠFinny": 8781,
      "Ġtoothpaste": 8782,
      "Ġdestroying": 8783,
      "Ġcheaper": 8784,
      "Ġhooks": 8785,
      "Ġleopards": 8786,
      "Ġunpacking": 8787,
      "Ġobserving": 8788,
      "Ġjudges": 8789,
      "Ġvests": 8790,
      "Ġburnt": 8791,
      "Ġthumbs": 8792,
      "Ġapartment": 8793,
      "Ġstudent": 8794,
      "Ġmagazines": 8795,
      "Ġweighs": 8796,
      "Ġresponsibility": 8797,
      "Ġfloats": 8798,
      "ĠMaya": 8799,
      "Ġcaution": 8800,
      "Ġseagulls": 8801,
      "asmine": 8802,
      "Ġchoosing": 8803,
      "Ġ20": 8804,
      "Ġswaying": 8805,
      "Ġattacked": 8806,
      "Ġmurd": 8807,
      "ĠCheese": 8808,
      "Ġnearest": 8809,
      "Ġdisobey": 8810,
      "Ġroutine": 8811,
      "Ġmatey": 8812,
      "Ġnibble": 8813,
      "Surprise": 8814,
      "Ġgallop": 8815,
      "Ġgranddaughter": 8816,
      "Ġnecessary": 8817,
      "ĠClaus": 8818,
      "Ġnasty": 8819,
      "Ġasshole": 8820,
      "Bu": 8821,
      "Deal": 8822,
      "HE": 8823,
      "Hold": 8824,
      "LL": 8825,
      "Mick": 8826,
      "Put": 8827,
      "Two": 8828,
      "Vroom": 8829,
      "Zoe": 8830,
      "bur": 8831,
      "gre": 8832,
      "gic": 8833,
      "garet": 8834,
      "lied": 8835,
      "mie": 8836,
      "please": 8837,
      "ram": 8838,
      "rupt": 8839,
      "uis": 8840,
      "Ġsipped": 8841,
      "Ġfare": 8842,
      "Ġful": 8843,
      "Ġfaint": 8844,
      "erman": 8845,
      "Ġmain": 8846,
      "Ġpals": 8847,
      "Ġwasting": 8848,
      "Ġnapped": 8849,
      "ĠSa": 8850,
      "ĠSil": 8851,
      "orse": 8852,
      "irs": 8853,
      "Ġyumm": 8854,
      "ammy": 8855,
      "amma": 8856,
      "Ġriddle": 8857,
      "Ġrumbling": 8858,
      "ĠBonnie": 8859,
      "chanted": 8860,
      "Ġshin": 8861,
      "Ġshave": 8862,
      "Ġwhipped": 8863,
      "Ġwhoosh": 8864,
      "ĠMore": 8865,
      "Ġgod": 8866,
      "Ġjets": 8867,
      "ĠAgain": 8868,
      "ĠAlec": 8869,
      "ĠJason": 8870,
      "ume": 8871,
      "Ġlevel": 8872,
      "ĠWil": 8873,
      "Ġclut": 8874,
      "icking": 8875,
      "Ġbride": 8876,
      "Ġotherwise": 8877,
      "ĠLia": 8878,
      "ĠExcited": 8879,
      "ĠDra": 8880,
      "ĠDee": 8881,
      "Ġpopping": 8882,
      "Ġoverwhe": 8883,
      "ĠCy": 8884,
      "izmo": 8885,
      "Ġflowing": 8886,
      "ĠJoJo": 8887,
      "ĠJosie": 8888,
      "ĠPup": 8889,
      "ĠGoose": 8890,
      "Ġfishy": 8891,
      "Ġdears": 8892,
      "Ġdifferently": 8893,
      "Ġfloppy": 8894,
      "Josh": 8895,
      "ulous": 8896,
      "ĠOpen": 8897,
      "Ġbuilder": 8898,
      "Ġbuilders": 8899,
      "...?": 8900,
      "Ġprocess": 8901,
      "Ġriverbank": 8902,
      "Ġdesperate": 8903,
      "Ġbattle": 8904,
      "Ġpresence": 8905,
      "Ġtunes": 8906,
      "Ġdiv": 8907,
      "ĠSteven": 8908,
      "ĠReady": 8909,
      "Ġsalon": 8910,
      "Ġsprays": 8911,
      "Ġmeadows": 8912,
      "Ġscrub": 8913,
      "Ġteams": 8914,
      "ĠZoey": 8915,
      "Ġincredibly": 8916,
      "ĠYum": 8917,
      "Ġstriking": 8918,
      "Ġleans": 8919,
      "Ġcharged": 8920,
      "Ġzips": 8921,
      "Ġdesks": 8922,
      "Ġtorto": 8923,
      "Ġbracelets": 8924,
      "Ġkangaroos": 8925,
      "Ġwindowsill": 8926,
      "Ġvinegar": 8927,
      "Ġluckiest": 8928,
      "Ġstrips": 8929,
      "Ġpressing": 8930,
      "ambi": 8931,
      "Ġcells": 8932,
      "Ġbothered": 8933,
      "Anne": 8934,
      "Ġweapons": 8935,
      "Ġscurrying": 8936,
      "ĠOliver": 8937,
      "Robbie": 8938,
      "Ġclicked": 8939,
      "ĠBirdie": 8940,
      "Ġdepartment": 8941,
      "Ġsirens": 8942,
      "Ġdetails": 8943,
      "Ġsweaty": 8944,
      "Ġcertainly": 8945,
      "Ġposition": 8946,
      "Ġfifty": 8947,
      "Abigail": 8948,
      "Ġdodged": 8949,
      "ĠPrince": 8950,
      "Ġofficers": 8951,
      "Ġsoothing": 8952,
      "Ġankle": 8953,
      "Ġoverwhel": 8954,
      ",'": 8955,
      "AT": 8956,
      "Cat": 8957,
      "David": 8958,
      "Each": 8959,
      "Je": 8960,
      "Mimi": 8961,
      "Pam": 8962,
      "Sc": 8963,
      "Sadie": 8964,
      "Ted": 8965,
      "Zoom": 8966,
      "don": 8967,
      "flower": 8968,
      "kind": 8969,
      "nis": 8970,
      "rop": 8971,
      "Ġouch": 8972,
      "Ġarom": 8973,
      "Ġactor": 8974,
      "Ġhike": 8975,
      "Ġhipp": 8976,
      "Ġwaking": 8977,
      "Ġfired": 8978,
      "Ġlar": 8979,
      "Ġgorge": 8980,
      "Ġgaz": 8981,
      "atitude": 8982,
      "uts": 8983,
      "Ġyel": 8984,
      "ĠIzzy": 8985,
      "ooo": 8986,
      "Ġstur": 8987,
      "stantly": 8988,
      "ĠweÃ¢": 8989,
      "Ġforts": 8990,
      "elvet": 8991,
      "Ġshif": 8992,
      "Ġket": 8993,
      "Ġneg": 8994,
      "ĠMust": 8995,
      "ĠMuffy": 8996,
      "Ġrely": 8997,
      "Ġrewards": 8998,
      "ĠAng": 8999,
      "Ġoutta": 9000,
      "ĠJilly": 9001,
      "ĠWhee": 9002,
      "getic": 9003,
      "Ġsometime": 9004,
      "ifying": 9005,
      "Ġcode": 9006,
      "Ġcarriage": 9007,
      "elle": 9008,
      "Ġflashed": 9009,
      "ĠEng": 9010,
      "Ġblades": 9011,
      "Ġtapping": 9012,
      "Ġhost": 9013,
      "Ġhollow": 9014,
      "Ġpeas": 9015,
      "Ġpeels": 9016,
      "Ġopt": 9017,
      "Ġenchanted": 9018,
      "obe": 9019,
      "Yesterday": 9020,
      "Ġgratitude": 9021,
      "Ġglisten": 9022,
      "Ġgliding": 9023,
      "Ġglobe": 9024,
      "ĠPl": 9025,
      "Ġstored": 9026,
      "Ġcleans": 9027,
      "ĠGot": 9028,
      "ĠGirl": 9029,
      "ĠGina": 9030,
      "ĠGerman": 9031,
      "ĠRusty": 9032,
      "Ġgreatest": 9033,
      "ĠThink": 9034,
      "Ġamused": 9035,
      "Ġpainful": 9036,
      "Ġgladly": 9037,
      "Ġsets": 9038,
      "Ġsteer": 9039,
      "Ġslowed": 9040,
      "Ġguide": 9041,
      "Ġgulp": 9042,
      "Ġhotter": 9043,
      "Ġcompete": 9044,
      "ggie": 9045,
      "ĠFlash": 9046,
      "Ġcupboards": 9047,
      "Ġbucks": 9048,
      "Ġlunchbox": 9049,
      "ounce": 9050,
      "Ġalongside": 9051,
      "Ġbats": 9052,
      "Ġbounces": 9053,
      "law": 9054,
      "Ġhorri": 9055,
      "Ġadmit": 9056,
      "Ġsupplied": 9057,
      "Ġwildflowers": 9058,
      "Ġspears": 9059,
      "Ġhumming": 9060,
      "Ġreminds": 9061,
      "ĠBea": 9062,
      "Ġsqueak": 9063,
      "Ġhonesty": 9064,
      "Beep": 9065,
      "Ġmagnifying": 9066,
      "ĠYesterday": 9067,
      "Ġbullshit": 9068,
      "Ġterribly": 9069,
      "Alright": 9070,
      "Ġharmony": 9071,
      "Ġcracker": 9072,
      "Ġcherish": 9073,
      "ĠShit": 9074,
      "Ġseriously": 9075,
      "Ġlizards": 9076,
      "Ġsharks": 9077,
      "Ġbeetles": 9078,
      "ĠPeggy": 9079,
      "Ġcampsite": 9080,
      "Ġhoops": 9081,
      "ĠWhoever": 9082,
      "ĠAlexa": 9083,
      "Ġshorts": 9084,
      "Ġmelody": 9085,
      "Ġspeaker": 9086,
      "Ġburger": 9087,
      "ĠCole": 9088,
      "Ġoffering": 9089,
      "Ġstrokes": 9090,
      "Ġsprinkle": 9091,
      "Quack": 9092,
      "Ġcontainer": 9093,
      "Ġsuitcases": 9094,
      "Ġannounced": 9095,
      "ĠCarol": 9096,
      "Ġrailroad": 9097,
      "Ġspilling": 9098,
      "Ġrevealing": 9099,
      "Ġheavily": 9100,
      "Ġrobbers": 9101,
      "Ġglittering": 9102,
      "Ġsilently": 9103,
      "Ġexperiences": 9104,
      "ĠDeal": 9105,
      "Which": 9106,
      "Ġflashes": 9107,
      "ĠColon": 9108,
      "ĠImmediately": 9109,
      "Ġcharacters": 9110,
      "Ġproduc": 9111,
      "Ġsadder": 9112,
      "ĠAmeric": 9113,
      "Ġcommunicate": 9114,
      "Ġprickly": 9115,
      "Ġopportunity": 9116,
      "Ġpeeped": 9117,
      "Ġsecurity": 9118,
      "Ġaroma": 9119,
      "Ġgorgeous": 9120,
      "Ġsturdy": 9121,
      "!'.": 9122,
      "'?": 9123,
      "Big": 9124,
      "Curious": 9125,
      "Hmm": 9126,
      "June": 9127,
      "Lizzy": 9128,
      "Laura": 9129,
      "Nice": 9130,
      "Never": 9131,
      "ON": 9132,
      "Paula": 9133,
      "Riley": 9134,
      "Sunny": 9135,
      "ai": 9136,
      "aly": 9137,
      "book": 9138,
      "give": 9139,
      "hib": 9140,
      "look": 9141,
      "mark": 9142,
      "nces": 9143,
      "sion": 9144,
      "uet": 9145,
      "Ġic": 9146,
      "Ġought": 9147,
      "Ġtips": 9148,
      "Ġsill": 9149,
      "ini": 9150,
      "Ġlens": 9151,
      "Ġdips": 9152,
      "ĠTurn": 9153,
      "isc": 9154,
      "Ġnur": 9155,
      "ĠSand": 9156,
      "ĠSire": 9157,
      "ĠSha": 9158,
      "lest": 9159,
      "ĠHard": 9160,
      "otty": 9161,
      "Ġyelp": 9162,
      "Ġeh": 9163,
      "Ġstiff": 9164,
      "Ġstinky": 9165,
      "ppies": 9166,
      "ader": 9167,
      "ĠBar": 9168,
      "Ġdock": 9169,
      "Ġnoticing": 9170,
      "Ġkit": 9171,
      "Ġwhined": 9172,
      "ĠMaisy": 9173,
      "Ġreck": 9174,
      "ĠAw": 9175,
      "ĠAir": 9176,
      "Ġsped": 9177,
      "Ġcanes": 9178,
      "asant": 9179,
[...]
